<pad>	0
<s>	0
</s>	0
<unk>	0
->	0
<-	0
->2	0
<-2	0
(ADJP	0
(ADVP	0
(CONJP	0
(FRAG	0
(INTJ	0
(LST	0
(NAC	0
(NP	0
(NX	0
(PP	0
(PRN	0
(PRT	0
(QP	0
(RRC	0
(S	0
(SBAR	0
(SBARQ	0
(SINV	0
(SQ	0
(UCP	0
(VP	0
(WHADJP	0
(WHADVP	0
(WHNP	0
(WHPP	0
(X	0
ADJP)	0
ADVP)	0
CONJP)	0
FRAG)	0
INTJ)	0
LST)	0
NAC)	0
NP)	0
NX)	0
PP)	0
PRN)	0
PRT)	0
QP)	0
RRC)	0
S)	0
SBAR)	0
SBARQ)	0
SINV)	0
SQ)	0
UCP)	0
VP)	0
WHADJP)	0
WHADVP)	0
WHNP)	0
WHPP)	0
X)	0
▁	-0.307198
.	-4.30436
▁,	-4.48021
▁the	-4.62956
s	-4.83998
'	-4.96308
▁of	-5.22616
▁to	-5.27823
▁a	-5.43729
-	-5.56778
▁and	-5.58267
`	-5.64524
▁in	-5.65419
ed	-6.12768
▁that	-6.20464
▁for	-6.26142
▁The	-6.40536
▁is	-6.43477
ing	-6.46861
▁$	-6.48528
▁said	-6.49163
d	-6.74571
ly	-6.75363
▁it	-6.80038
▁Mr	-6.82988
t	-6.85261
▁with	-6.8802
▁by	-6.91483
▁from	-6.91565
▁be	-6.925
%	-6.95583
▁at	-6.96647
▁as	-6.97475
▁million	-6.97959
▁was	-6.99783
▁on	-7.01554
▁its	-7.03962
▁has	-7.09911
▁are	-7.10687
▁will	-7.16072
▁have	-7.20204
▁he	-7.23216
S	-7.2634
year	-7.29668
▁company	-7.36699
▁an	-7.40373
▁would	-7.47011
▁about	-7.53251
▁which	-7.56842
▁U	-7.59995
n	-7.61844
▁says	-7.63515
▁n	-7.63708
▁--	-7.64563
▁or	-7.64711
▁In	-7.67796
▁more	-7.69204
▁his	-7.69513
y	-7.7269
a	-7.73821
▁this	-7.74362
▁they	-7.7597
▁had	-7.79476
▁were	-7.79585
▁their	-7.80314
on	-7.83016
▁who	-7.83734
▁been	-7.85783
▁But	-7.87328
▁but	-7.87967
▁than	-7.88982
R	-7.92362
▁also	-7.94274
▁new	-7.99753
▁billion	-7.99816
▁other	-8.01201
▁Inc	-8.01432
▁shares	-8.05661
▁up	-8.06702
▁some	-8.06982
▁Corp	-8.08977
▁New	-8.1081
▁not	-8.11471
▁last	-8.1185
▁one	-8.12415
e	-8.13357
▁I	-8.14858
&	-8.14991
▁market	-8.16774
▁A	-8.19708
▁Co	-8.19979
▁two	-8.21003
▁It	-8.22721
▁stock	-8.23444
▁could	-8.23845
▁:	-8.25364
▁He	-8.26184
RB	-8.27343
▁years	-8.28284
LRB	-8.28507
▁president	-8.30956
▁can	-8.32441
▁all	-8.35383
▁York	-8.36115
based	-8.37245
A	-8.37861
▁because	-8.39014
▁government	-8.42861
;	-8.43961
▁when	-8.44398
▁do	-8.4504
▁after	-8.45362
▁first	-8.45676
an	-8.45788
in	-8.49263
▁into	-8.50429
▁any	-8.52467
▁we	-8.53205
▁companies	-8.53598
the	-8.54692
▁such	-8.54761
▁only	-8.56867
▁trading	-8.59324
quarter	-8.59961
▁if	-8.60669
▁most	-8.6266
▁yesterday	-8.63471
▁sales	-8.63524
▁there	-8.64345
▁may	-8.64808
▁share	-8.6597
▁prices	-8.66045
▁over	-8.66729
▁American	-8.66983
▁increase	-8.6727
▁many	-8.67605
▁much	-8.69705
▁business	-8.70415
re	-8.71745
▁them	-8.73756
▁so	-8.74252
earlier	-8.74777
▁say	-8.75093
▁group	-8.75271
▁no	-8.75291
▁unit	-8.75303
▁now	-8.76141
ever	-8.77265
▁concern	-8.77946
▁did	-8.78358
▁We	-8.78408
▁cents	-8.785
▁three	-8.78996
ies	-8.80282
▁people	-8.80527
while	-8.82246
▁under	-8.82668
▁rose	-8.83002
▁price	-8.83297
▁what	-8.83312
to	-8.84225
▁1	-8.84262
▁how	-8.85085
▁officials	-8.86334
out	-8.87468
▁investment	-8.87852
▁make	-8.87858
▁out	-8.89584
▁executive	-8.89775
share	-8.90389
▁you	-8.91202
es	-8.91542
▁interest	-8.91762
▁chief	-8.92061
able	-8.93139
B	-8.93403
▁against	-8.93523
▁before	-8.93612
▁offer	-8.94248
er	-8.94444
▁buy	-8.9591
less	-8.96018
▁major	-8.97136
or	-8.97218
▁10	-8.98253
▁down	-8.98447
▁decline	-8.99031
▁even	-8.99117
▁months	-8.99304
▁through	-8.9963
▁chairman	-9.00158
▁debt	-9.0167
▁federal	-9.01841
▁And	-9.02302
day	-9.02599
▁week	-9.03229
▁Exchange	-9.03271
time	-9.04016
▁since	-9.04037
▁those	-9.04166
▁plan	-9.04708
▁does	-9.04869
▁Bank	-9.0628
▁next	-9.06404
▁between	-9.06599
m	-9.06783
▁firm	-9.07477
▁high	-9.07675
▁money	-9.08695
▁industry	-9.08774
▁made	-9.08823
▁just	-9.08865
▁bank	-9.0908
C	-9.0959
▁financial	-9.10271
▁long	-9.1081
▁still	-9.11575
▁issue	-9.12316
▁trade	-9.12389
old	-9.12992
▁expect	-9.13164
▁They	-9.13344
▁vice	-9.13658
▁dollar	-9.13786
▁total	-9.13911
▁expected	-9.1399
▁get	-9.14073
▁should	-9.141
▁For	-9.14501
▁1986	-9.15028
▁profit	-9.15273
▁rates	-9.15283
▁foreign	-9.16176
▁banks	-9.1636
▁state	-9.16716
▁As	-9.16843
one	-9.16861
P	-9.16982
▁investors	-9.17005
▁real	-9.17105
▁move	-9.17105
▁contract	-9.17171
▁spokesman	-9.17256
man	-9.17702
▁closed	-9.17721
▁report	-9.18125
▁own	-9.18197
▁common	-9.18754
▁like	-9.19565
▁recent	-9.20091
▁officer	-9.21057
▁agreement	-9.21211
▁former	-9.21321
▁part	-9.21378
▁That	-9.22032
▁includ	-9.22368
▁plans	-9.22698
▁take	-9.22882
▁these	-9.23856
▁?	-9.23913
▁help	-9.24026
▁each	-9.24152
over	-9.24459
▁analysts	-9.24543
▁bid	-9.25288
▁well	-9.25319
▁higher	-9.25327
▁This	-9.25341
▁1987	-9.25576
▁Japanese	-9.25768
▁If	-9.25779
▁time	-9.25907
▁want	-9.26027
▁public	-9.26344
▁big	-9.26523
▁him	-9.26771
▁earnings	-9.27818
▁30	-9.27945
▁sell	-9.28272
▁value	-9.28399
▁20	-9.2933
▁being	-9.29373
▁work	-9.29636
▁large	-9.30096
is	-9.30539
▁another	-9.30628
▁operations	-9.30664
▁might	-9.31001
▁current	-9.31195
▁our	-9.31383
▁both	-9.31519
▁reported	-9.31575
us	-9.32026
▁several	-9.3217
▁pay	-9.32761
▁economic	-9.33257
▁bonds	-9.33673
▁securities	-9.33783
term	-9.34476
▁general	-9.34938
▁world	-9.35762
▁comment	-9.35898
▁lower	-9.36182
▁she	-9.36332
and	-9.36411
▁sale	-9.36429
▁five	-9.3691
J	-9.371
▁past	-9.37265
▁markets	-9.37525
▁fell	-9.37778
▁revenue	-9.385
▁issues	-9.38685
▁tax	-9.3876
▁House	-9.38855
▁agreed	-9.38954
▁remain	-9.39108
▁net	-9.39509
▁second	-9.39737
▁very	-9.40169
▁oil	-9.4026
▁Japan	-9.40623
▁funds	-9.41327
ther	-9.41621
▁think	-9.41704
▁court	-9.41712
called	-9.41814
rate	-9.41833
L	-9.41887
▁Stock	-9.42003
during	-9.42188
month	-9.42347
▁Reagan	-9.42428
▁too	-9.42643
▁director	-9.42812
▁products	-9.43045
▁days	-9.43166
▁used	-9.43629
▁early	-9.43667
▁system	-9.44254
T	-9.44498
▁stocks	-9.44714
▁National	-9.45118
▁There	-9.45607
▁same	-9.45863
▁stake	-9.45947
▁receive	-9.45947
▁15	-9.46087
market	-9.46544
▁already	-9.46572
▁off	-9.46948
▁meeting	-9.47042
▁West	-9.47058
▁four	-9.47255
▁program	-9.47288
▁close	-9.47874
up	-9.47963
▁cash	-9.48212
▁good	-9.4868
▁show	-9.49066
E	-9.49076
▁few	-9.4912
▁among	-9.49163
▁sold	-9.4955
▁At	-9.50349
▁assets	-9.50912
▁whe	-9.50991
▁use	-9.51247
▁Some	-9.51861
▁continue	-9.5199
▁then	-9.52251
▁International	-9.5242
▁effort	-9.52571
of	-9.52707
▁provide	-9.52877
▁certain	-9.5322
▁number	-9.53245
▁case	-9.53311
▁growth	-9.53456
▁least	-9.53681
▁here	-9.53795
▁where	-9.53847
▁include	-9.54
▁need	-9.54445
▁capital	-9.54483
▁rate	-9.54735
1	-9.54888
▁raise	-9.55471
▁until	-9.55567
▁six	-9.55728
▁according	-9.5576
▁give	-9.558
▁Department	-9.55834
o	-9.56072
▁Congress	-9.56197
gan	-9.56217
▁short	-9.56443
▁Friday	-9.56485
came	-9.56519
▁small	-9.56528
▁far	-9.56682
▁recently	-9.56994
▁average	-9.57582
▁added	-9.57668
▁support	-9.58039
▁12	-9.58077
▁back	-9.58346
tax	-9.59171
▁cost	-9.59377
▁Federal	-9.59636
▁management	-9.59664
▁political	-9.59671
▁board	-9.59865
▁result	-9.59881
▁late	-9.59981
▁costs	-9.60035
▁senior	-9.60342
▁reach	-9.60615
▁production	-9.60953
▁British	-9.61747
▁country	-9.61876
▁official	-9.62034
F	-9.62133
▁First	-9.62441
▁little	-9.62634
p	-9.6313
without	-9.63495
▁Texas	-9.63636
ended	-9.63911
▁Treasury	-9.64126
▁likely	-9.6433
▁June	-9.64429
▁economy	-9.64634
▁50	-9.64723
▁start	-9.65276
▁national	-9.65457
off	-9.65591
▁her	-9.66099
D	-9.66121
▁Securities	-9.66382
▁corporate	-9.66382
▁President	-9.66397
▁administration	-9.66501
▁1988	-9.668
▁agency	-9.66907
▁11	-9.67017
▁analyst	-9.6719
▁must	-9.67243
▁Group	-9.67385
▁strong	-9.67396
▁level	-9.67418
▁problems	-9.67464
▁2	-9.67679
▁Washington	-9.68297
▁trader	-9.68379
▁going	-9.68554
▁income	-9.69607
▁Soviet	-9.69836
▁see	-9.70009
▁maker	-9.70269
▁members	-9.70943
▁John	-9.71249
▁operating	-9.71672
▁become	-9.71967
▁On	-9.72112
▁figure	-9.72291
▁shareholders	-9.72348
▁month	-9.72611
it	-9.72626
▁25	-9.73859
▁annual	-9.73866
▁period	-9.7444
▁fiscal	-9.7446
▁1985	-9.74463
▁consider	-9.74567
▁offering	-9.74907
▁loans	-9.74945
▁previously	-9.75311
▁believe	-9.75614
▁March	-9.75969
▁further	-9.76044
▁General	-9.7619
▁amount	-9.76245
as	-9.76264
▁policy	-9.76282
▁plant	-9.76318
▁One	-9.76545
▁record	-9.76994
▁way	-9.77065
▁today	-9.7709
▁employees	-9.77119
▁propos	-9.77531
▁outstanding	-9.77676
▁100	-9.77787
▁change	-9.77905
▁loss	-9.77963
▁decision	-9.78064
2	-9.78601
▁July	-9.78807
▁set	-9.7897
▁deficit	-9.7907
▁bill	-9.79311
▁ago	-9.79777
5	-9.80433
▁put	-9.80537
end	-9.8063
▁proposal	-9.80816
▁though	-9.81106
▁May	-9.81249
▁clear	-9.81252
▁law	-9.81318
▁better	-9.81358
▁come	-9.81428
led	-9.81716
▁private	-9.8188
▁open	-9.82082
▁rise	-9.82197
▁possible	-9.82215
ve	-9.82427
▁look	-9.82821
▁Robert	-9.82834
▁un	-9.8291
▁notes	-9.83041
▁N	-9.83077
G	-9.83132
▁computer	-9.83226
by	-9.83527
▁acquisition	-9.83864
▁exchange	-9.8419
▁workers	-9.84483
▁credit	-9.84544
▁composite	-9.84562
▁office	-9.85178
▁When	-9.85394
▁around	-9.85724
▁problem	-9.85791
H	-9.85793
▁budget	-9.85911
▁results	-9.86062
law	-9.86462
▁top	-9.86681
▁dollars	-9.86987
▁file	-9.87081
▁Street	-9.87214
▁Commission	-9.87782
▁How	-9.87812
espite	-9.87919
▁Ltd	-9.87967
▁London	-9.88473
▁campaign	-9.88694
▁inflation	-9.88845
wide	-9.8901
al	-9.893
▁nation	-9.89436
8	-9.89448
▁South	-9.8952
▁weeks	-9.89597
▁Board	-9.89656
▁Wall	-9.90081
ers	-9.90357
▁America	-9.9057
▁demand	-9.90747
points	-9.90957
O	-9.9103
▁Chicago	-9.91145
▁3	-9.91147
▁announc	-9.91217
▁April	-9.91275
K	-9.91448
▁allow	-9.9174
▁future	-9.91833
▁yen	-9.91844
▁reflect	-9.91948
▁makes	-9.92147
▁later	-9.92268
▁international	-9.92359
▁information	-9.92373
▁home	-9.92404
▁compar	-9.92412
▁13	-9.92676
▁latest	-9.9279
ity	-9.93147
▁example	-9.93176
ion	-9.93423
▁news	-9.93468
men	-9.93485
▁told	-9.93535
N	-9.93541
▁named	-9.93594
way	-9.9369
▁know	-9.94287
▁enough	-9.94288
▁executives	-9.94323
▁To	-9.94602
▁low	-9.94602
▁holding	-9.94857
th	-9.94895
▁countries	-9.95036
▁found	-9.95724
estate	-9.95829
▁losses	-9.96022
▁D	-9.96029
▁filing	-9.96047
▁currently	-9.96661
▁right	-9.9682
▁firms	-9.96912
▁never	-9.96939
▁local	-9.96981
▁index	-9.97115
▁takeover	-9.97205
▁full	-9.97242
▁division	-9.97447
▁measure	-9.97622
▁North	-9.97889
▁futures	-9.97968
▁31	-9.98018
▁go	-9.98185
▁face	-9.98209
▁Canadian	-9.98308
owned	-9.98379
3	-9.98468
▁services	-9.98501
▁An	-9.98632
care	-9.98643
▁committee	-9.98702
▁suggest	-9.9888
▁14	-9.99069
W	-9.99194
co	-9.99315
▁purchase	-9.9935
▁bond	-9.994
▁consumer	-9.99479
▁nearly	-10.0001
▁charges	-10.0001
▁1/2	-10.0002
▁gain	-10.0014
▁transaction	-10.0068
▁cut	-10.0106
half	-10.0147
▁addition	-10.0155
▁best	-10.0191
▁return	-10.0204
▁additional	-10.0204
▁held	-10.0216
▁Ms	-10.0221
▁sharp	-10.0238
▁got	-10.0298
▁due	-10.0316
▁my	-10.0318
▁suit	-10.0347
▁keep	-10.0355
▁commercial	-10.0357
▁selling	-10.036
▁within	-10.036
▁Last	-10.0371
▁special	-10.0372
▁often	-10.0389
▁fall	-10.0399
▁acquired	-10.0413
▁acquire	-10.0424
▁spending	-10.0434
4	-10.0439
▁Whil	-10.0463
▁important	-10.0464
▁5	-10.0473
for	-10.0478
▁Air	-10.0487
▁Union	-10.0489
▁probab	-10.0499
▁almost	-10.051
▁18	-10.0519
▁yield	-10.0542
▁produce	-10.0543
▁Senate	-10.0545
▁changes	-10.0547
▁non	-10.0557
▁personal	-10.0575
▁40	-10.0594
▁research	-10.0614
▁European	-10.0621
▁With	-10.0636
▁No	-10.0656
▁left	-10.0675
related	-10.068
▁programs	-10.0687
▁trying	-10.0702
▁defense	-10.0714
▁buying	-10.0715
▁end	-10.0725
▁took	-10.0726
▁Monday	-10.0727
▁So	-10.0764
▁United	-10.0774
▁control	-10.0775
,	-10.0782
▁job	-10.0794
ll	-10.0806
▁things	-10.0807
▁others	-10.0859
▁economist	-10.086
▁third	-10.0879
▁drop	-10.0942
ness	-10.0958
▁insurance	-10.0969
▁customers	-10.0982
▁study	-10.0985
▁businesses	-10.0988
▁point	-10.099
M	-10.0991
▁boost	-10.0995
▁charge	-10.0995
▁hard	-10.0998
▁lot	-10.1021
▁whose	-10.1027
▁reduce	-10.1082
▁Calif	-10.109
▁James	-10.1097
▁8	-10.1098
son	-10.1098
▁Under	-10.11
▁paid	-10.1114
▁military	-10.1117
▁hope	-10.1143
▁19	-10.115
▁equipment	-10.1164
▁industrial	-10.1169
▁After	-10.1195
week	-10.1238
oil	-10.1239
at	-10.126
back	-10.1303
▁legal	-10.1326
▁What	-10.1339
▁California	-10.1353
▁7	-10.1392
▁fund	-10.1402
▁particular	-10.1415
house	-10.1415
▁increasing	-10.1416
▁manager	-10.1445
▁White	-10.1454
▁begin	-10.148
▁City	-10.1504
land	-10.1527
▁fourth	-10.1539
9	-10.1541
▁Iran	-10.1561
▁accept	-10.1576
▁Association	-10.1578
▁product	-10.1584
▁investor	-10.159
▁order	-10.1592
▁Bush	-10.1603
▁units	-10.1604
counter	-10.1609
▁find	-10.162
▁every	-10.1647
▁yet	-10.1647
▁difficult	-10.1654
▁tender	-10.1657
▁single	-10.1658
▁rather	-10.1669
▁final	-10.1673
▁force	-10.1673
▁power	-10.1673
▁appear	-10.1678
6	-10.1693
▁main	-10.1701
▁department	-10.1701
▁represent	-10.1701
▁drug	-10.1706
▁project	-10.1708
▁health	-10.1713
▁estimated	-10.1715
▁Court	-10.1718
▁terms	-10.173
▁San	-10.1775
▁again	-10.1795
▁16	-10.1804
▁William	-10.181
▁domestic	-10.1824
▁union	-10.1843
▁previous	-10.1868
▁states	-10.1886
▁once	-10.1901
▁effect	-10.1919
▁More	-10.1937
▁position	-10.1944
▁offered	-10.1947
▁World	-10.1956
▁fact	-10.1957
▁family	-10.1968
▁Fed	-10.1973
▁talks	-10.1976
▁Europe	-10.199
▁risk	-10.1997
▁auto	-10.2018
▁cause	-10.2034
▁Ford	-10.2037
go	-10.2049
▁continued	-10.2058
▁direct	-10.206
I	-10.2069
▁approved	-10.2074
▁deal	-10.2094
▁test	-10.2095
▁potential	-10.2115
▁volume	-10.2115
▁Sen	-10.2142
▁vote	-10.2142
▁German	-10.2167
▁times	-10.2178
▁action	-10.2193
ally	-10.2214
▁question	-10.222
▁finance	-10.2231
▁bought	-10.2263
▁October	-10.2281
▁merger	-10.2282
▁Boston	-10.2285
CB	-10.2288
▁directors	-10.2288
either	-10.232
▁post	-10.2355
▁seven	-10.237
▁subject	-10.2377
l	-10.2388
ability	-10.2398
▁17	-10.2403
▁preferred	-10.2404
b	-10.2409
member	-10.241
▁your	-10.243
▁producer	-10.244
7	-10.2448
▁approval	-10.2456
▁Canada	-10.2475
▁succeed	-10.2482
▁initial	-10.2488
▁require	-10.2489
▁University	-10.2491
▁SEC	-10.2517
▁Jones	-10.2519
▁Tuesday	-10.2537
income	-10.2548
▁similar	-10.2567
range	-10.2574
▁marks	-10.2581
▁Tokyo	-10.2585
▁seek	-10.2586
▁anti	-10.2599
▁release	-10.26
lthough	-10.2638
sources	-10.2649
▁You	-10.2654
c	-10.2661
▁Dow	-10.2667
i	-10.2672
▁Even	-10.268
▁soon	-10.2693
▁6	-10.2709
▁GM	-10.2715
▁process	-10.2722
▁involved	-10.2724
▁holders	-10.2725
▁cars	-10.2744
▁1984	-10.2785
trading	-10.2792
▁increases	-10.2794
largest	-10.2799
▁lost	-10.2799
▁seem	-10.2813
▁January	-10.2823
▁attempt	-10.2828
▁mortgage	-10.2835
ce	-10.2852
▁marketing	-10.2858
▁restructuring	-10.286
▁calls	-10.2866
▁investigation	-10.2867
▁central	-10.2902
▁pressure	-10.2924
▁itself	-10.2943
▁Western	-10.2951
▁taxes	-10.2957
ago	-10.2958
▁life	-10.2976
▁60	-10.2991
▁M	-10.2996
▁Germany	-10.3013
▁financing	-10.3036
sked	-10.3039
▁thrift	-10.3054
line	-10.3054
▁managers	-10.3068
▁completed	-10.3092
age	-10.3096
seeking	-10.3102
▁reason	-10.3114
▁gold	-10.3115
▁1/4	-10.3118
▁Now	-10.3152
▁dropped	-10.3153
▁development	-10.3154
▁available	-10.3158
r	-10.3171
aid	-10.3179
▁4	-10.3183
▁half	-10.3184
▁follow	-10.3191
▁operate	-10.3194
▁Many	-10.3194
▁target	-10.3197
he	-10.3223
▁working	-10.3234
down	-10.324
▁statement	-10.3252
▁IBM	-10.3257
▁groups	-10.3259
field	-10.3311
/	-10.3322
▁different	-10.3328
▁near	-10.3331
▁December	-10.3341
▁outside	-10.3346
▁data	-10.3347
▁following	-10.3352
stock	-10.3364
▁August	-10.339
▁Los	-10.341
▁disclosed	-10.341
▁place	-10.3452
making	-10.346
▁Mean	-10.3467
▁biggest	-10.3469
▁given	-10.3472
▁rules	-10.3478
▁toward	-10.3481
▁along	-10.3491
▁decided	-10.3495
board	-10.3495
▁course	-10.3498
▁His	-10.3512
▁Oct	-10.3514
▁great	-10.3518
▁Financial	-10.3525
▁away	-10.3531
▁Texaco	-10.3542
▁women	-10.3554
▁above	-10.3555
▁something	-10.3586
▁gains	-10.3588
▁broker	-10.359
▁labor	-10.3593
Y	-10.3596
▁taken	-10.3604
▁attorney	-10.3619
▁banking	-10.3636
▁loan	-10.364
▁Rep	-10.3647
▁party	-10.3672
▁cases	-10.368
▁staff	-10.3684
▁Drexel	-10.3692
▁profits	-10.3703
▁3/4	-10.3727
▁lead	-10.3747
▁stores	-10.3748
▁name	-10.3761
▁head	-10.3772
index	-10.3777
▁gas	-10.3778
▁saying	-10.3792
▁run	-10.3815
▁Britain	-10.3822
▁nine	-10.3824
▁scheduled	-10.3882
▁settlement	-10.3884
▁making	-10.3898
k	-10.3902
▁payments	-10.3908
went	-10.3912
▁Other	-10.3942
▁role	-10.3942
▁commission	-10.3943
▁Capital	-10.3952
▁jobs	-10.3986
▁1989	-10.3991
▁Richard	-10.4007
▁interview	-10.402
▁partnership	-10.402
▁interests	-10.4025
▁systems	-10.4034
▁included	-10.4047
▁9	-10.4047
▁letter	-10.4063
control	-10.4065
▁Angeles	-10.4071
▁banker	-10.4082
▁meet	-10.4103
▁Wednesday	-10.4106
▁black	-10.4117
▁By	-10.4124
▁apparent	-10.4133
▁Most	-10.4173
▁Sept	-10.4184
▁reports	-10.4207
▁hold	-10.422
▁PLC	-10.4222
side	-10.4231
▁These	-10.4233
▁below	-10.4246
▁Service	-10.4249
▁claim	-10.425
▁percentage	-10.4251
▁service	-10.4261
▁largest	-10.4288
▁She	-10.4297
ation	-10.4298
▁Judge	-10.4308
en	-10.4312
▁claims	-10.4314
▁currency	-10.434
▁eight	-10.4345
▁orders	-10.4359
▁David	-10.4369
▁paper	-10.4385
▁Industries	-10.4392
▁strategy	-10.4398
▁create	-10.4438
▁effective	-10.4458
▁September	-10.4458
▁Democratic	-10.4466
▁continuing	-10.4486
▁predict	-10.4488
using	-10.4505
▁turn	-10.4517
body	-10.4519
▁significant	-10.4548
▁Committee	-10.4556
▁dividend	-10.4592
having	-10.4593
▁basis	-10.4603
▁All	-10.4603
▁French	-10.4619
▁joint	-10.4619
▁Morgan	-10.4635
▁State	-10.4648
▁join	-10.4652
held	-10.4657
▁subsidiary	-10.4663
▁television	-10.4722
▁nuclear	-10.4745
ary	-10.4746
▁advertising	-10.4749
▁options	-10.4761
▁expand	-10.4787
than	-10.4793
loss	-10.4801
▁mean	-10.4807
▁getting	-10.4818
TV	-10.4848
▁Shearson	-10.4863
▁Michael	-10.4874
▁maintain	-10.4878
▁strike	-10.488
▁November	-10.4883
▁kind	-10.4916
▁slightly	-10.4917
▁alleged	-10.4929
▁seems	-10.4953
▁leave	-10.4962
▁leaders	-10.498
▁launch	-10.4995
▁failed	-10.5027
▁planned	-10.5031
▁always	-10.5034
▁competition	-10.504
▁benefits	-10.5041
▁call	-10.5044
▁indicate	-10.5065
▁although	-10.5065
▁ruling	-10.5086
▁crash	-10.5087
exchange	-10.5088
▁especial	-10.5095
▁doing	-10.5113
point	-10.5126
no	-10.5138
▁legislation	-10.5142
▁done	-10.5165
ton	-10.5167
▁account	-10.5175
▁independent	-10.518
▁judge	-10.5193
▁election	-10.5204
▁Dukakis	-10.5204
▁owns	-10.5206
▁21	-10.5224
water	-10.5226
▁limited	-10.5226
▁creditor	-10.5226
▁airline	-10.5259
▁venture	-10.526
▁22	-10.5261
▁holds	-10.5265
seen	-10.5275
▁estimates	-10.528
▁construction	-10.5287
▁survey	-10.5302
▁discount	-10.5322
▁Big	-10.5324
▁institutions	-10.5329
▁parts	-10.5337
▁longer	-10.5356
▁thought	-10.5376
▁review	-10.5384
▁actual	-10.5399
be	-10.5401
el	-10.5404
▁St	-10.5409
▁considered	-10.5411
▁themselves	-10.5415
▁me	-10.5428
▁According	-10.5444
▁discuss	-10.5453
▁thing	-10.5459
mong	-10.5459
▁plants	-10.546
▁arms	-10.5465
▁complete	-10.547
service	-10.5474
▁East	-10.5475
▁Jan	-10.5478
well	-10.5483
U	-10.5514
▁Merrill	-10.5517
▁pre	-10.5545
free	-10.5549
▁Chairman	-10.5549
▁closely	-10.5555
▁performance	-10.5561
▁Airline	-10.5566
▁building	-10.5586
▁George	-10.5587
▁book	-10.5595
▁1980	-10.5601
▁February	-10.5646
▁heavy	-10.5664
▁shareholder	-10.5667
▁computers	-10.5697
▁magazine	-10.5699
▁equity	-10.5719
▁negotiation	-10.5722
▁means	-10.5729
▁24	-10.5729
▁avoid	-10.5735
▁adds	-10.5766
▁invest	-10.5768
▁lawyers	-10.579
page	-10.58
▁exports	-10.5801
▁retail	-10.5813
▁huge	-10.5824
priced	-10.5824
▁Home	-10.5846
bank	-10.5863
▁why	-10.5876
▁argue	-10.588
third	-10.5897
▁build	-10.5899
▁approach	-10.5914
▁leading	-10.5926
interest	-10.5934
▁De	-10.594
▁himself	-10.5941
▁announcement	-10.5943
te	-10.5949
▁won	-10.5959
▁Smith	-10.5978
▁trust	-10.5979
▁ask	-10.6011
▁Reserve	-10.6012
▁reduced	-10.6029
▁matter	-10.604
▁dispute	-10.605
▁Justice	-10.6063
▁traded	-10.6071
▁23	-10.6072
▁Democrats	-10.6074
store	-10.6078
▁Savings	-10.6101
ism	-10.6115
▁damage	-10.6117
services	-10.6126
▁proceed	-10.6129
▁Since	-10.6131
▁write	-10.6134
▁war	-10.6152
▁hurt	-10.6169
▁car	-10.6174
▁hearing	-10.6186
▁evidence	-10.6194
▁try	-10.6204
▁individual	-10.6212
▁benefit	-10.6222
power	-10.6226
▁Dec	-10.6235
▁Dr	-10.6235
de	-10.6242
▁city	-10.6246
▁children	-10.6254
▁idea	-10.6267
▁original	-10.6269
▁feel	-10.6272
management	-10.6274
▁partner	-10.6278
▁reserves	-10.6285
▁request	-10.6298
not	-10.6305
▁Pacific	-10.6342
▁line	-10.636
▁stay	-10.6369
▁rest	-10.637
▁26	-10.6378
▁Paul	-10.6387
▁bankruptcy	-10.6392
▁required	-10.6392
▁200	-10.64
est	-10.6402
▁separate	-10.6405
▁Business	-10.6407
▁policies	-10.6414
▁500	-10.6414
▁accounts	-10.6421
▁Electric	-10.6437
brought	-10.644
▁retailer	-10.6441
▁network	-10.6455
▁China	-10.6455
▁tons	-10.6459
▁food	-10.646
▁fear	-10.6463
▁anything	-10.6479
spread	-10.6488
▁response	-10.6493
▁regulator	-10.6498
▁summer	-10.6503
▁Lynch	-10.6515
▁beginning	-10.6533
▁clients	-10.6534
level	-10.6583
▁session	-10.6591
▁lawsuit	-10.6592
▁limit	-10.6598
American	-10.6617
▁imports	-10.6627
▁panel	-10.6631
▁signed	-10.6644
▁areas	-10.6652
▁leader	-10.6657
▁supply	-10.6661
▁corporation	-10.6677
changed	-10.6695
▁AIDS	-10.6703
▁article	-10.6713
▁push	-10.6719
gained	-10.6727
ctivity	-10.673
▁Chrysler	-10.6731
▁fight	-10.6738
long	-10.6756
▁opposition	-10.6756
▁bad	-10.6766
▁forecast	-10.677
▁specific	-10.6791
quality	-10.6793
▁gave	-10.6793
▁area	-10.6794
▁medical	-10.6819
▁bring	-10.6824
▁situation	-10.6825
▁experience	-10.6826
▁rights	-10.6829
▁shows	-10.6831
▁base	-10.6838
▁bills	-10.686
▁aircraft	-10.6864
plus	-10.6875
▁Kong	-10.6878
▁savings	-10.6878
▁prevent	-10.688
▁form	-10.6883
ic	-10.6883
▁Brothers	-10.6885
▁laws	-10.6887
▁France	-10.6888
▁dealers	-10.6889
taking	-10.6906
▁debentures	-10.6914
▁Analyst	-10.6915
▁conditions	-10.6922
▁35	-10.6928
▁block	-10.6934
▁Standard	-10.6948
▁believes	-10.6963
▁instance	-10.7004
▁quickly	-10.7005
▁presidential	-10.7007
ley	-10.7027
paying	-10.7038
▁28	-10.7043
▁turned	-10.706
▁Thursday	-10.7073
▁cuts	-10.708
ad	-10.7081
▁confirm	-10.7088
▁1/8	-10.7094
mark	-10.7098
▁cable	-10.7103
instead	-10.7107
▁27	-10.7109
▁buyers	-10.7122
▁hours	-10.7123
▁unchanged	-10.7123
▁comes	-10.7132
▁double	-10.7134
▁entire	-10.7139
▁together	-10.7142
▁expert	-10.7156
▁congressional	-10.7161
all	-10.7164
V	-10.7169
▁agree	-10.7174
made	-10.7176
▁serious	-10.7179
▁willing	-10.719
▁Both	-10.7194
▁needed	-10.7204
▁posted	-10.7217
where	-10.7219
▁portfolio	-10.7223
▁Eastern	-10.7223
▁quot	-10.7225
▁export	-10.7228
▁surge	-10.7234
ar	-10.7235
▁makers	-10.7257
price	-10.7263
▁factor	-10.7263
▁behind	-10.7278
▁climb	-10.7282
▁series	-10.73
▁nothing	-10.73
▁accounting	-10.7302
▁Hong	-10.7316
▁Jr	-10.7346
▁Bell	-10.7371
▁estimate	-10.7386
le	-10.7389
▁natural	-10.7402
▁designed	-10.7404
▁tell	-10.7409
do	-10.7415
ham	-10.7418
▁play	-10.742
▁narrow	-10.7422
▁manufacturing	-10.7424
▁conservative	-10.7425
▁young	-10.7426
▁award	-10.7426
▁1983	-10.7447
▁ahead	-10.7456
▁conference	-10.7462
▁greater	-10.7468
g	-10.747
state	-10.7471
▁history	-10.7474
▁team	-10.7479
▁smaller	-10.7505
fund	-10.7511
▁free	-10.7514
▁carry	-10.7525
▁various	-10.7535
▁miles	-10.7558
▁1990	-10.7568
more	-10.7568
dollar	-10.7569
▁appeal	-10.7569
class	-10.7572
▁transactions	-10.7594
▁rule	-10.7597
cost	-10.7598
▁earned	-10.7605
▁Journal	-10.7608
▁hospital	-10.7622
▁Sales	-10.7624
▁rejected	-10.7647
▁simply	-10.7683
▁lawyer	-10.7683
▁questions	-10.7693
▁utility	-10.7694
▁7/8	-10.7707
▁charged	-10.7707
▁Institute	-10.7712
ending	-10.7722
▁technology	-10.7724
products	-10.7734
▁Gen	-10.7741
room	-10.7749
▁mid	-10.7757
▁nations	-10.778
▁hit	-10.7783
▁software	-10.7786
▁Aug	-10.779
▁sent	-10.7802
▁associate	-10.7817
hour	-10.7855
▁3/8	-10.7868
▁consumers	-10.7876
▁Supreme	-10.7889
▁impact	-10.7892
ex	-10.7916
rights	-10.7938
▁Fund	-10.7941
▁Investor	-10.795
▁goods	-10.7954
▁Salomon	-10.7955
takeover	-10.7955
▁majority	-10.7969
▁Mexico	-10.7976
▁surplus	-10.7984
▁allowed	-10.7986
▁Dallas	-10.7988
▁battle	-10.7994
▁Thomas	-10.8002
▁accord	-10.8012
▁80	-10.8029
▁balance	-10.8047
▁projects	-10.8053
▁Republican	-10.8055
▁rally	-10.8059
▁spokeswom	-10.8062
▁margin	-10.8062
▁spent	-10.8069
▁steel	-10.807
▁looking	-10.8077
▁usually	-10.8082
▁Brazil	-10.8084
▁growing	-10.8092
▁purchased	-10.8094
▁Lehman	-10.8095
▁advance	-10.8118
art	-10.8125
▁favor	-10.8136
▁People	-10.8139
▁spend	-10.8147
▁retain	-10.8154
▁operation	-10.8161
▁present	-10.8167
▁view	-10.8168
f	-10.8193
per	-10.8203
▁Florida	-10.8221
giving	-10.8229
known	-10.8233
like	-10.8234
▁Still	-10.824
▁fees	-10.8243
▁known	-10.8251
▁rumor	-10.8261
▁principal	-10.8266
▁acquisitions	-10.8271
▁Central	-10.8274
▁lack	-10.8277
▁worked	-10.8283
▁chain	-10.8285
her	-10.8286
▁popular	-10.8321
▁brokerage	-10.8321
▁5/8	-10.8332
ry	-10.8346
▁forced	-10.8371
▁list	-10.8376
adjusted	-10.8382
▁parent	-10.8388
▁press	-10.8393
▁energy	-10.8407
car	-10.8411
▁space	-10.8417
▁1982	-10.8422
▁Such	-10.8442
communications	-10.8447
▁newspaper	-10.8448
▁success	-10.8449
▁Insurance	-10.8453
▁rising	-10.8462
▁Party	-10.8467
▁Commerce	-10.8474
▁expansion	-10.8477
▁promise	-10.8484
▁pension	-10.8484
▁activities	-10.8491
▁minister	-10.8493
▁break	-10.8499
▁obtain	-10.8515
▁Also	-10.8521
z	-10.8534
▁relatively	-10.8548
▁per	-10.8558
▁auction	-10.8563
▁Security	-10.8567
▁attention	-10.8579
▁whole	-10.8582
▁Baker	-10.8605
▁adopt	-10.8612
▁secretary	-10.8622
▁closing	-10.864
▁Houston	-10.8653
▁death	-10.8656
▁creat	-10.8665
▁talk	-10.8667
▁parties	-10.8668
▁air	-10.8678
▁light	-10.8689
▁leveraged	-10.8703
▁Secretary	-10.8727
fire	-10.8731
▁partly	-10.8733
▁poor	-10.8735
▁Revenue	-10.8738
▁telephone	-10.8754
▁carrier	-10.8756
▁substantial	-10.8781
▁students	-10.879
▁Separate	-10.879
▁Continental	-10.8793
bond	-10.8797
▁debate	-10.8797
▁act	-10.8799
▁hotel	-10.8817
▁delay	-10.8818
▁requirement	-10.8819
▁across	-10.8832
▁develop	-10.8834
▁property	-10.8845
▁police	-10.8849
un	-10.8849
▁protect	-10.8872
▁human	-10.8877
▁Moody	-10.8889
▁existing	-10.8892
▁prospect	-10.8896
▁Ohio	-10.8901
▁counsel	-10.891
▁alternative	-10.8914
▁challenge	-10.8917
▁Services	-10.8944
cutting	-10.8959
▁strength	-10.8965
▁tried	-10.8968
controlled	-10.8969
▁step	-10.8973
▁professional	-10.8994
▁criminal	-10.8998
cited	-10.9009
▁managing	-10.9013
▁Charles	-10.903
▁Stanley	-10.9034
▁Energy	-10.9045
▁expenses	-10.9047
▁Minister	-10.9048
▁Francisco	-10.9054
▁highly	-10.9058
▁Gulf	-10.9062
▁attack	-10.9067
▁plane	-10.9069
▁fair	-10.9083
▁improve	-10.9086
▁Korea	-10.9089
▁complaint	-10.91
▁community	-10.9109
▁civil	-10.9111
▁forces	-10.9122
▁resigned	-10.9127
town	-10.9128
▁let	-10.9136
▁watch	-10.914
ling	-10.9149
▁offers	-10.9155
▁Motor	-10.9182
▁positions	-10.9183
▁chance	-10.9186
▁output	-10.9187
▁fixed	-10.919
ard	-10.9208
▁hostile	-10.9212
▁mostly	-10.9222
▁electronic	-10.9231
▁perhaps	-10.9239
interested	-10.9249
▁flow	-10.9251
▁Chemical	-10.9253
am	-10.9262
▁equal	-10.9266
▁hand	-10.9266
▁stop	-10.9271
▁patients	-10.9272
ment	-10.9273
▁speculation	-10.9277
passed	-10.928
▁widely	-10.928
ent	-10.93
▁larger	-10.9306
▁provision	-10.931
▁cover	-10.9317
▁Management	-10.9321
▁travel	-10.9328
▁holdings	-10.9334
▁expectation	-10.9334
▁eventual	-10.9357
growing	-10.9358
▁purchases	-10.9371
ance	-10.9373
▁advantage	-10.9377
▁convertible	-10.9379
nother	-10.9383
▁Soviets	-10.9392
▁reform	-10.9404
▁basic	-10.9407
▁70	-10.9418
expected	-10.9423
▁Navy	-10.9454
▁partners	-10.9455
▁sought	-10.9462
▁protection	-10.9463
▁29	-10.9469
▁recession	-10.9474
▁learn	-10.9477
▁30-	-10.9481
▁express	-10.9482
▁Johnson	-10.9497
▁phone	-10.9501
backed	-10.9502
▁Oil	-10.9514
-1	-10.9515
▁Am	-10.9542
▁successful	-10.9548
▁Trust	-10.9549
▁exceed	-10.9553
▁version	-10.9566
▁Southern	-10.9571
how	-10.9608
▁Class	-10.9612
▁chemical	-10.9613
▁illegal	-10.9623
▁Systems	-10.963
▁Computer	-10.9633
▁package	-10.9651
▁agent	-10.9652
▁Col	-10.9653
▁drugs	-10.9659
▁Peter	-10.9661
▁AT	-10.9674
▁overall	-10.9674
▁45	-10.9677
▁player	-10.969
▁sure	-10.9721
▁commitment	-10.9721
▁Mass	-10.9737
▁Trade	-10.9737
▁regional	-10.9739
▁announce	-10.9743
▁jumped	-10.9753
▁controls	-10.9786
▁technical	-10.9794
▁threat	-10.9799
▁Labor	-10.9822
▁Citicorp	-10.9837
▁influence	-10.9844
▁Industrial	-10.9857
▁fast	-10.9866
▁daily	-10.9867
▁doctor	-10.9896
▁sign	-10.9899
▁note	-10.991
▁150	-10.9911
▁Center	-10.9915
industry	-10.9921
▁wanted	-10.9924
▁lines	-10.9934
▁employee	-10.9935
▁security	-10.9938
▁slow	-10.9948
if	-10.9951
▁regulatory	-10.9955
▁Administration	-10.9956
▁aggressive	-10.9967
▁traditional	-10.9978
right	-10.9982
▁rival	-10.9984
▁intend	-10.9989
▁pact	-11.0005
▁import	-11.0006
▁Prime	-11.0007
▁Sun	-11.0014
▁details	-11.0021
ecause	-11.0031
▁region	-11.0032
▁capacity	-11.0035
▁Investment	-11.0038
▁hands	-11.004
▁focus	-11.0043
▁attract	-11.0047
Contra	-11.0052
▁300	-11.0055
▁decide	-11.0057
▁rating	-11.0062
takes	-11.0067
▁violation	-11.0068
▁minimum	-11.0085
▁consultant	-11.0092
▁Gorbachev	-11.0095
▁proposals	-11.0107
▁sense	-11.0119
▁doubt	-11.012
▁immediately	-11.0125
▁regard	-11.0127
▁agencies	-11.0134
gas	-11.0139
▁beyond	-11.014
▁Nov	-11.0143
▁prompt	-11.015
▁goes	-11.0155
▁Force	-11.017
▁employer	-11.0175
▁actions	-11.0181
▁denied	-11.0182
▁running	-11.0188
food	-11.0194
▁concerned	-11.0196
▁grant	-11.0198
▁unusual	-11.0207
▁familiar	-11.0233
▁standards	-11.0235
▁improvement	-11.0246
me	-11.0251
▁source	-11.0252
truck	-11.0257
▁Yesterday	-11.0265
▁Loan	-11.0292
▁giant	-11.0301
▁grow	-11.031
▁Two	-11.0317
▁numbers	-11.0323
▁date	-11.0324
▁grew	-11.0349
▁Petroleum	-11.0356
▁Pa	-11.0357
▁add	-11.0372
▁facilities	-11.0374
▁Motors	-11.0376
▁Associate	-11.0379
▁reasons	-11.0385
ous	-11.0386
▁quarterly	-11.0392
ship	-11.0398
▁depend	-11.04
▁prime	-11.0408
ner	-11.0411
▁mutual	-11.043
▁payment	-11.0433
▁Its	-11.0438
▁social	-11.0441
▁encourage	-11.0457
▁necessary	-11.0462
▁access	-11.047
some	-11.0474
▁Not	-11.0483
▁Then	-11.0513
▁Power	-11.0517
▁de	-11.053
▁discover	-11.0537
▁Thos	-11.054
▁broad	-11.0546
▁complex	-11.0551
air	-11.0568
▁provid	-11.0568
▁Feb	-11.0572
▁opinion	-11.0583
▁heart	-11.0594
▁1.5	-11.0595
▁candidates	-11.0607
▁propose	-11.0616
▁adding	-11.0617
▁distribution	-11.0618
▁Hutton	-11.0621
court	-11.0627
▁Boeing	-11.0631
▁person	-11.0637
▁restaurant	-11.0641
▁pence	-11.0641
▁night	-11.0644
wood	-11.0659
▁Africa	-11.066
▁1981	-11.0667
▁Yet	-11.0684
▁institutional	-11.0691
volving	-11.0696
▁thousand	-11.0698
stead	-11.0698
style	-11.0705
▁Health	-11.0705
▁models	-11.0713
▁improved	-11.0715
▁taking	-11.0723
dustries	-11.0727
▁Toronto	-11.0739
▁else	-11.0746
▁typical	-11.0752
▁self	-11.0754
▁advanced	-11.0757
▁Finance	-11.0763
▁sometimes	-11.0763
▁candidate	-11.0763
▁speech	-11.0781
▁insider	-11.0789
▁90	-11.0792
▁Moscow	-11.0793
▁standard	-11.0802
▁Of	-11.0815
▁Act	-11.0825
▁spot	-11.0829
▁Defense	-11.0829
▁signal	-11.0842
▁progress	-11.0848
insurance	-11.0852
II	-11.0864
▁News	-11.0875
school	-11.0876
▁Post	-11.0884
con	-11.0886
▁Jackson	-11.0888
▁adviser	-11.0893
▁Research	-11.09
▁Goldman	-11.0903
w	-11.0907
▁subordinated	-11.0911
▁opportunity	-11.0913
▁Price	-11.0926
▁moderate	-11.093
▁reporter	-11.0931
▁met	-11.0938
▁Jersey	-11.0951
▁indicat	-11.0955
▁finding	-11.0955
▁option	-11.097
▁England	-11.0972
5,000	-11.0975
▁size	-11.0983
▁agreements	-11.0992
▁formed	-11.1002
▁story	-11.1004
▁jury	-11.1021
▁publisher	-11.1024
▁spring	-11.1041
▁expensive	-11.1069
▁win	-11.108
▁primari	-11.1088
▁prove	-11.1088
▁1970	-11.1107
ive	-11.1112
▁Pentagon	-11.1151
ities	-11.1152
▁Manhattan	-11.1154
▁About	-11.1162
▁unlike	-11.1173
▁competitors	-11.1182
▁weekend	-11.1192
▁Conn	-11.1206
▁respond	-11.1208
▁contain	-11.1209
▁movement	-11.1217
▁offices	-11.1219
▁trial	-11.1222
▁Credit	-11.1231
▁Swiss	-11.1232
▁IRS	-11.1233
▁customer	-11.1235
yield	-11.1239
▁individuals	-11.1246
▁weapons	-11.1247
▁combined	-11.1249
▁authority	-11.125
▁planning	-11.1252
▁trouble	-11.1255
▁Martin	-11.1276
▁developing	-11.1281
tood	-11.1282
▁manufacturers	-11.1299
50	-11.131
▁coming	-11.1312
▁quite	-11.132
▁appeals	-11.1329
technology	-11.133
▁Dur	-11.133
▁weak	-11.1337
▁thus	-11.1342
▁Paris	-11.1343
▁contend	-11.1344
▁Joseph	-11.1347
▁12.5	-11.1351
placed	-11.1371
▁replace	-11.1372
▁safety	-11.1375
action	-11.1376
going	-11.1378
voted	-11.1386
▁relationship	-11.1387
▁Santa	-11.1397
▁possibility	-11.1409
▁overseas	-11.1412
▁wrong	-11.1419
▁stations	-11.1422
▁oppose	-11.1427
▁War	-11.1431
▁competitive	-11.1439
▁involve	-11.144
▁representative	-11.1441
▁crude	-11.1441
▁Pan	-11.1444
▁factors	-11.1445
▁generate	-11.1453
▁anyone	-11.1467
Warner	-11.1467
▁passenger	-11.1482
▁active	-11.1485
▁Though	-11.1488
▁Holdings	-11.1494
▁normal	-11.1498
▁white	-11.1507
▁airlines	-11.1515
chip	-11.1516
▁primary	-11.1533
kept	-11.1536
▁organization	-11.1537
▁Gold	-11.1553
red	-11.1554
▁portion	-11.1559
▁couple	-11.1568
▁junk	-11.1572
▁affect	-11.1576
rich	-11.159
▁Burn	-11.1595
card	-11.1596
▁district	-11.1598
▁film	-11.1602
▁middle	-11.1615
▁restriction	-11.1621
▁75	-11.1629
run	-11.1638
▁save	-11.1645
▁internal	-11.1645
▁soar	-11.1652
▁highest	-11.1655
▁opening	-11.1656
▁Saturday	-11.1658
ro	-11.1663
▁tough	-11.1669
▁CBS	-11.1671
▁answer	-11.168
▁Massachusetts	-11.1685
▁prepared	-11.1698
▁machines	-11.1699
selling	-11.1701
▁voters	-11.1711
▁Data	-11.1714
▁warrant	-11.1736
coming	-11.1738
▁asset	-11.1738
policy	-11.1742
business	-11.1743
▁Mrs	-11.1745
▁true	-11.1745
▁shift	-11.1748
▁Australian	-11.1749
▁provisions	-11.1752
▁college	-11.1759
▁tomorrow	-11.1759
▁crisis	-11.1776
▁corn	-11.1782
▁decisions	-11.1806
▁ruled	-11.181
reduction	-11.181
makers	-11.1813
▁movie	-11.1819
▁positive	-11.1823
▁records	-11.183
▁disclose	-11.1835
▁trend	-11.1844
▁negative	-11.185
25	-11.1855
▁delivery	-11.1862
▁Frank	-11.1867
▁equivalent	-11.1872
▁Inde	-11.1875
sponsor	-11.1877
▁morning	-11.1879
▁elect	-11.188
▁falling	-11.1882
1,000	-11.189
appeared	-11.1907
▁population	-11.1908
▁modest	-11.1926
▁properties	-11.1926
▁practice	-11.1933
▁documents	-11.194
▁ads	-11.1941
set	-11.1948
75	-11.1954
▁Times	-11.1961
▁image	-11.1974
▁leadership	-11.1988
ting	-11.199
▁professor	-11.2004
▁underwriter	-11.2028
▁Korean	-11.2029
▁missiles	-11.2031
▁Poor	-11.2034
▁Trader	-11.204
▁ratings	-11.2041
▁owners	-11.2045
▁supplies	-11.2045
▁ways	-11.2046
▁ordered	-11.2059
▁conduct	-11.2062
nation	-11.2071
▁peace	-11.2072
▁Columbia	-11.2077
▁municipal	-11.2092
▁alone	-11.2096
▁game	-11.2116
▁school	-11.2116
▁---	-11.2123
▁decade	-11.2132
▁10-	-11.2133
▁starting	-11.2135
▁Un	-11.2145
▁Saudi	-11.2146
▁fears	-11.2151
▁structure	-11.2157
▁publicly	-11.2157
trade	-11.2174
▁monetary	-11.2175
▁employment	-11.2191
gains	-11.2195
▁insist	-11.2197
▁Lee	-11.2201
▁child	-11.2224
▁Israel	-11.2239
▁begun	-11.2244
▁protest	-11.2247
▁contrast	-11.2249
▁farmers	-11.225
war	-11.2251
▁warn	-11.2257
▁insurer	-11.2258
▁Public	-11.226
▁showing	-11.2264
▁32	-11.2265
can	-11.2277
▁moving	-11.2286
▁education	-11.2287
▁understand	-11.2288
gets	-11.2292
▁facilit	-11.2301
upon	-11.2306
▁failure	-11.231
h	-11.2319
▁center	-11.2324
▁caus	-11.2326
▁headquarter	-11.233
lo	-11.2333
▁prior	-11.2335
citie	-11.2348
▁editor	-11.2352
profit	-11.2353
▁Mo	-11.2378
▁Express	-11.2378
▁Edward	-11.2379
▁francs	-11.2383
▁borrowing	-11.2387
▁connection	-11.2396
▁difference	-11.2396
▁live	-11.2396
▁impose	-11.2397
▁Chapter	-11.2399
▁Our	-11.24
▁frequent	-11.2415
setting	-11.2418
▁unemployment	-11.242
▁deposits	-11.2426
▁Philadelphia	-11.2436
▁fundamental	-11.244
ma	-11.2454
life	-11.2457
▁rough	-11.2461
▁everything	-11.2464
▁message	-11.2469
ties	-11.2469
▁Development	-11.2488
▁ground	-11.249
equity	-11.2498
▁stand	-11.2501
worth	-11.2514
so	-11.2516
West	-11.2517
crash	-11.252
headed	-11.2527
▁worry	-11.2528
▁Mich	-11.2529
▁season	-11.2534
unions	-11.2535
▁Gas	-11.2547
▁politics	-11.2557
▁responsibl	-11.2557
▁whom	-11.2564
▁electronics	-11.2566
▁treatment	-11.2568
▁status	-11.2589
▁vehicles	-11.2593
▁Re	-11.2593
▁split	-11.2594
talking	-11.2597
▁pending	-11.2611
▁Official	-11.2614
▁Today	-11.2614
mail	-11.2617
▁discussions	-11.2625
century	-11.2626
▁works	-11.2627
▁extreme	-11.263
▁visit	-11.2635
▁drive	-11.2638
▁goal	-11.2645
loan	-11.2647
▁deep	-11.2652
▁housing	-11.2655
▁acknowledge	-11.2657
▁formal	-11.2659
▁Nasdaq	-11.2665
▁Council	-11.2667
▁34	-11.267
▁secret	-11.267
▁55	-11.2674
▁declared	-11.2675
▁Brown	-11.2686
▁OPEC	-11.2689
ist	-11.269
ably	-11.2695
▁fully	-11.2705
▁attractive	-11.2705
▁Office	-11.2713
2,000	-11.2718
▁Ministry	-11.2721
▁principle	-11.2721
▁Boesky	-11.273
▁pace	-11.2754
▁schools	-11.276
▁contractor	-11.2764
▁items	-11.2783
▁mixed	-11.2784
▁task	-11.2787
▁Stores	-11.2789
ch	-11.2796
▁built	-11.2798
▁lose	-11.2799
▁key	-11.2802
▁Australia	-11.2803
everal	-11.2808
▁signs	-11.2809
▁Thu	-11.2811
foot	-11.2813
▁disease	-11.2815
▁manage	-11.2821
▁newly	-11.2826
▁leaving	-11.2829
▁resources	-11.2837
▁significantly	-11.2839
▁Campeau	-11.2842
▁steps	-11.2845
▁fine	-11.2847
▁troubled	-11.2848
▁amid	-11.2849
low	-11.2856
▁refus	-11.287
▁extended	-11.2872
▁powerful	-11.2876
▁machine	-11.2879
▁assistant	-11.2879
▁regulations	-11.2884
▁developer	-11.2889
▁purposes	-11.2901
▁heavily	-11.2913
▁farm	-11.2915
▁plunge	-11.2916
▁scandal	-11.2917
banking	-11.2921
▁FDA	-11.2934
▁radio	-11.2938
▁reorganization	-11.2947
▁design	-11.2947
producing	-11.2951
ud	-11.2954
▁license	-11.2955
▁chemicals	-11.2965
▁42	-11.2978
▁reduction	-11.2979
▁easy	-11.2985
▁direction	-11.2988
▁strengthen	-11.2995
▁Sunday	-11.2999
▁extend	-11.3007
▁400	-11.3008
▁minority	-11.3011
▁100,000	-11.3015
▁transportation	-11.3017
▁seats	-11.3018
▁shipment	-11.3018
▁mind	-11.302
▁nor	-11.3022
1.8	-11.3035
▁specialty	-11.3036
▁System	-11.3042
▁lawmaker	-11.3046
waiting	-11.3049
cut	-11.305
▁severe	-11.305
▁fraud	-11.3054
▁prosecutor	-11.3055
systems	-11.3059
▁arrangement	-11.3062
ine	-11.3062
▁ultimate	-11.3075
▁Atlanta	-11.3077
▁affiliate	-11.3101
▁remained	-11.3103
▁families	-11.3109
▁declines	-11.3118
▁Pennzoil	-11.3124
▁Louis	-11.3141
▁returns	-11.3153
▁values	-11.3158
▁Prudential	-11.3161
▁King	-11.3166
▁stronger	-11.3176
▁utilities	-11.3178
▁via	-11.3182
▁ownership	-11.3183
▁bit	-11.3191
▁barrels	-11.3198
ne	-11.3206
▁Iranian	-11.3207
▁suffer	-11.321
▁feet	-11.3242
▁killed	-11.3244
▁Republicans	-11.325
served	-11.3259
▁substantially	-11.3266
▁material	-11.3269
▁regular	-11.327
▁carrie	-11.3271
▁emerge	-11.3274
drug	-11.3287
▁preliminary	-11.3291
forward	-11.3291
▁floor	-11.3296
▁Life	-11.3297
▁send	-11.3304
▁determine	-11.3312
▁offset	-11.3313
▁liberal	-11.3314
risk	-11.3317
▁wrote	-11.3324
▁Partners	-11.3327
,000	-11.333
▁model	-11.3338
▁handle	-11.3343
▁Fla	-11.335
▁editorial	-11.3367
▁politician	-11.337
▁My	-11.3379
▁currencies	-11.3388
▁pretax	-11.3407
▁38	-11.3409
▁51	-11.3413
▁dealing	-11.342
▁voting	-11.3425
▁elaborate	-11.3425
▁33	-11.3426
▁lending	-11.3434
▁association	-11.3445
▁revis	-11.3453
▁pull	-11.3458
▁Army	-11.346
▁Contras	-11.3461
▁37	-11.3465
▁flight	-11.3476
▁Foreign	-11.3477
▁County	-11.3489
▁fewer	-11.3494
▁conventional	-11.3494
ier	-11.3501
▁picture	-11.351
▁contribut	-11.3511
-2	-11.3519
▁buyer	-11.3519
election	-11.3532
▁everyone	-11.3543
▁statements	-11.3549
▁confidence	-11.3555
▁saw	-11.3558
berg	-11.3568
▁front	-11.3575
hired	-11.3593
processing	-11.3595
▁abroad	-11.3597
▁Industry	-11.3598
▁monthly	-11.36
▁Black	-11.3606
▁Steel	-11.3606
▁contact	-11.3607
▁except	-11.3609
▁250	-11.3616
▁pro	-11.3626
▁Average	-11.3628
▁accused	-11.3628
▁prison	-11.3628
▁Term	-11.3629
issue	-11.3637
com	-11.3638
▁suspend	-11.3648
li	-11.3654
▁materials	-11.366
▁Chinese	-11.3661
▁African	-11.3674
▁authorit	-11.3683
▁throughout	-11.3686
mid	-11.3688
▁introduc	-11.3688
▁repeated	-11.369
▁retirement	-11.3693
▁soft	-11.3694
▁inquir	-11.37
▁serve	-11.3701
▁Gov	-11.3706
▁gross	-11.3707
▁choice	-11.3709
▁Apple	-11.3712
▁annually	-11.3713
▁station	-11.373
▁inside	-11.3737
▁books	-11.3738
▁blue	-11.3741
▁slipp	-11.3742
▁sort	-11.3746
▁compete	-11.375
▁grand	-11.3755
▁brand	-11.3759
night	-11.3761
▁outlook	-11.3762
▁father	-11.3762
▁Earlier	-11.3767
▁convince	-11.3776
authorized	-11.378
sure	-11.3783
▁reduc	-11.3784
▁disclosure	-11.3786
▁36	-11.3793
▁pound	-11.3797
▁courts	-11.3797
▁music	-11.38
▁pretty	-11.3803
▁governments	-11.3804
▁Kidder	-11.3808
▁compare	-11.381
▁wife	-11.3813
▁affected	-11.3814
▁44	-11.3817
▁wage	-11.3821
▁Great	-11.3831
▁Messrs	-11.3836
▁knew	-11.3845
▁guilty	-11.3873
▁felt	-11.3875
▁Sachs	-11.3887
▁Market	-11.3894
▁worth	-11.3898
▁strategic	-11.3898
▁brief	-11.3899
▁critics	-11.3901
▁word	-11.3903
▁aerospace	-11.3905
▁negotiat	-11.3911
▁Here	-11.3915
finance	-11.392
rs	-11.392
▁settle	-11.3922
▁permit	-11.3925
▁settled	-11.3926
▁intended	-11.3928
▁moment	-11.3947
▁merge	-11.3952
▁From	-11.3957
tic	-11.3961
▁somewhat	-11.3962
company	-11.3969
▁arrest	-11.3976
▁events	-11.398
▁responsibility	-11.3982
▁Wright	-11.3985
mile	-11.3998
▁testing	-11.3999
head	-11.3999
▁rebound	-11.3999
▁becoming	-11.4016
suits	-11.4018
▁OTC	-11.4022
sector	-11.4024
▁Carl	-11.4026
▁quiet	-11.4028
▁commodity	-11.405
▁litigation	-11.405
▁immediate	-11.4058
▁played	-11.4067
win	-11.407
▁global	-11.4078
▁bigger	-11.4079
▁Atlantic	-11.4095
missile	-11.4097
▁Irving	-11.4098
▁Allied	-11.4103
▁Their	-11.411
ty	-11.4118
▁Resources	-11.412
▁victory	-11.4127
▁Ronald	-11.4131
appointed	-11.4133
▁Miami	-11.415
ney	-11.4166
▁practices	-11.4171
▁sides	-11.4209
▁Mexican	-11.4231
▁wait	-11.4232
piece	-11.4234
▁sector	-11.4235
▁read	-11.4246
▁effects	-11.4251
▁patent	-11.4251
▁friends	-11.4253
language	-11.4256
▁participant	-11.4257
▁operator	-11.426
▁recommendation	-11.4268
▁veto	-11.428
▁allegation	-11.4283
▁determined	-11.4284
▁pilots	-11.4287
door	-11.4294
▁realize	-11.4295
▁enter	-11.431
▁remove	-11.431
▁runs	-11.4311
▁Young	-11.4314
fell	-11.4314
▁Taiwan	-11.4319
▁Three	-11.4319
▁65	-11.4322
▁Donald	-11.4323
▁39	-11.4331
▁premium	-11.4338
▁audience	-11.4338
▁Du	-11.434
▁Fe	-11.4342
ul	-11.4344
▁exact	-11.4351
▁Jack	-11.4353
▁twice	-11.4353
▁testimony	-11.4353
▁acquir	-11.4369
▁deliver	-11.4376
▁blood	-11.4377
▁combination	-11.4382
▁extra	-11.4389
▁race	-11.4389
▁reaction	-11.4391
scale	-11.4395
▁Carter	-11.4401
▁pushed	-11.441
uses	-11.4414
▁flat	-11.4417
▁symbol	-11.4434
▁Miller	-11.4439
▁defend	-11.4447
▁deposit	-11.4453
▁described	-11.4454
▁ready	-11.4454
▁expire	-11.4465
▁46	-11.4468
▁establish	-11.4473
▁consulting	-11.4474
▁trigger	-11.4475
▁bidding	-11.4479
▁compet	-11.4481
▁media	-11.4482
▁Park	-11.4493
▁apply	-11.4496
▁parents	-11.4501
▁recognize	-11.4509
retired	-11.4512
▁living	-11.453
▁triple	-11.4535
▁publishing	-11.4538
▁calling	-11.454
▁putt	-11.4562
▁governor	-11.457
speed	-11.4576
▁Before	-11.4584
▁Third	-11.4584
▁wonder	-11.4586
▁Guinness	-11.4595
▁halt	-11.4597
▁identify	-11.4599
▁Kodak	-11.4599
▁achieve	-11.4602
▁assume	-11.4602
▁exercise	-11.4603
▁words	-11.4607
engine	-11.4608
▁Like	-11.4614
▁limits	-11.4619
▁names	-11.4624
▁fuel	-11.4628
lecommunications	-11.4631
Canada	-11.4633
▁attorneys	-11.4633
▁Communications	-11.4637
▁pursue	-11.4639
▁lenders	-11.464
▁possibly	-11.4644
▁antitrust	-11.4644
▁criticism	-11.4652
▁engineering	-11.4653
▁attribut	-11.4663
▁proxy	-11.4669
ac	-11.4672
▁airport	-11.4672
▁Long	-11.4674
▁Sears	-11.4685
▁weakness	-11.47
▁Ill	-11.4701
▁lives	-11.4706
▁contribute	-11.4708
▁sudden	-11.471
um	-11.471
▁Agency	-11.4715
▁Meese	-11.4715
▁temporary	-11.472
▁established	-11.4723
▁approve	-11.4723
▁defendant	-11.4728
▁gone	-11.4729
▁mention	-11.4733
▁society	-11.4734
▁introduce	-11.4741
losing	-11.4743
rated	-11.4756
Z	-11.476
imed	-11.4764
▁Italy	-11.4766
▁coverage	-11.4766
▁woman	-11.4766
▁knows	-11.4767
▁contest	-11.4773
▁exchanges	-11.4777
▁fee	-11.4779
▁railroad	-11.4781
▁obligation	-11.4786
▁select	-11.4801
▁membership	-11.4802
90	-11.4812
support	-11.4824
▁Morris	-11.4829
▁rare	-11.4837
▁pick	-11.4845
▁Volume	-11.4847
▁none	-11.4849
▁Philip	-11.4849
▁funding	-11.4859
▁faster	-11.486
▁attend	-11.4863
▁Icahn	-11.4867
▁Iowa	-11.4868
▁schedule	-11.4876
▁semiconductor	-11.4878
▁critical	-11.488
▁Alan	-11.4886
▁obvious	-11.4888
equipment	-11.4889
▁accident	-11.4892
▁stage	-11.4893
Soviet	-11.4904
▁essential	-11.4909
▁intervention	-11.4909
▁consist	-11.4909
▁quota	-11.4915
▁collect	-11.4923
▁Kennedy	-11.4934
▁indictment	-11.4935
▁client	-11.494
▁homes	-11.4942
▁Latin	-11.4945
.875	-11.4949
▁compromise	-11.495
▁relations	-11.495
▁explain	-11.4952
Star	-11.4954
▁studies	-11.4956
▁hot	-11.4957
ey	-11.4974
3,000	-11.4974
▁conflict	-11.4974
▁AG	-11.4981
▁PaineWebber	-11.4981
▁Medical	-11.4981
▁investigat	-11.4995
key	-11.4997
▁43	-11.4998
▁ones	-11.5
▁Manufacturers	-11.5002
▁notice	-11.5007
▁finished	-11.5015
▁Time	-11.5025
▁identifi	-11.5039
▁Ro	-11.5045
▁refuse	-11.5046
▁fare	-11.5063
kin	-11.5063
due	-11.5067
▁neither	-11.5074
▁declining	-11.5075
▁Detroit	-11.5077
▁inventories	-11.5082
▁treaty	-11.5084
▁Bureau	-11.5101
▁employ	-11.5101
fashion	-11.511
▁El	-11.5113
▁trades	-11.5115
▁bidder	-11.5118
▁mere	-11.5129
2.8	-11.5136
▁minutes	-11.5144
▁Do	-11.5145
home	-11.5166
▁owner	-11.5169
▁happen	-11.5169
▁enjoy	-11.5169
family	-11.5174
▁address	-11.5183
ri	-11.5187
▁School	-11.5206
▁widen	-11.5209
▁dividends	-11.5209
▁track	-11.5212
building	-11.5216
▁networks	-11.5216
4.5	-11.5222
▁publish	-11.5225
net	-11.5227
sells	-11.5229
assistance	-11.5235
▁Howard	-11.5244
▁asking	-11.525
▁heard	-11.5251
▁La	-11.5253
▁argu	-11.5254
▁Singapore	-11.526
▁dozen	-11.5263
▁cancer	-11.5265
▁supposed	-11.5266
our	-11.5283
▁distribute	-11.5287
2.2	-11.5288
▁voice	-11.5292
▁character	-11.5304
▁Merc	-11.5307
66	-11.5312
▁died	-11.5314
▁sound	-11.5319
▁returned	-11.5324
▁coal	-11.5326
▁event	-11.5329
▁friendly	-11.533
▁developed	-11.5335
▁1979	-11.5338
▁Switzerland	-11.534
▁Or	-11.534
os	-11.5343
▁chose	-11.5348
▁worried	-11.535
▁simple	-11.535
▁pattern	-11.5351
▁collapse	-11.5352
supply	-11.5355
▁suspect	-11.5364
▁tend	-11.5369
▁concede	-11.5377
▁pass	-11.5377
▁sports	-11.5379
▁comparable	-11.5384
▁eliminate	-11.5385
raising	-11.5386
▁perform	-11.5386
▁weaken	-11.5387
▁indication	-11.5395
▁Organization	-11.5399
▁ideas	-11.5402
ill	-11.5402
▁environmental	-11.5406
▁redeem	-11.5407
▁worst	-11.5407
1.9	-11.5419
▁Douglas	-11.5425
▁soybean	-11.5426
star	-11.5429
▁Sea	-11.5431
▁troops	-11.5433
la	-11.544
▁expanded	-11.5447
▁proceedings	-11.5454
▁Social	-11.5458
▁amendment	-11.5461
government	-11.5467
▁47	-11.5476
▁easier	-11.5476
die	-11.5486
▁Kansas	-11.5497
▁adjustment	-11.55
▁1,000	-11.5509
maker	-11.5513
▁Markets	-11.5513
▁environment	-11.5521
▁Arab	-11.5527
▁Cos	-11.5528
view	-11.5536
▁career	-11.5538
▁worse	-11.5541
▁traffic	-11.5546
▁Consumer	-11.5546
▁search	-11.5546
▁deals	-11.5548
/32	-11.555
▁count	-11.555
▁matters	-11.5552
fat	-11.5554
▁1992	-11.5557
que	-11.5568
citing	-11.5573
▁excess	-11.5574
▁hundreds	-11.5575
deed	-11.5578
▁instrument	-11.5584
▁rebel	-11.5585
▁appropriate	-11.559
▁pipeline	-11.5601
▁Over	-11.5607
7.5	-11.5614
▁walk	-11.5623
▁48	-11.5628
▁reserve	-11.5643
▁Economic	-11.565
▁score	-11.565
▁49	-11.5657
▁surprised	-11.5657
▁centers	-11.5661
▁investigators	-11.5663
▁chips	-11.5664
generation	-11.5668
▁Hall	-11.5674
▁researchers	-11.5677
▁concluded	-11.5678
mont	-11.568
der	-11.5687
▁relative	-11.5689
goods	-11.5702
95	-11.5704
▁ban	-11.5708
▁treat	-11.571
recommended	-11.5728
▁Digital	-11.5729
▁tactic	-11.5729
stone	-11.5734
▁Harris	-11.5734
account	-11.5735
▁GE	-11.5738
ted	-11.5738
▁views	-11.5745
▁GOP	-11.5746
▁lowest	-11.5747
▁Law	-11.5748
▁condition	-11.5756
▁hear	-11.5761
▁opportunit	-11.5765
party	-11.577
▁Italian	-11.5773
▁Grand	-11.5779
▁Technology	-11.5785
eries	-11.5786
▁ensure	-11.5791
▁Federated	-11.5799
▁older	-11.5807
▁remark	-11.5811
▁respect	-11.5813
▁easi	-11.5814
▁correct	-11.5818
▁Delaware	-11.5819
▁factory	-11.5829
▁shortage	-11.5841
▁slump	-11.5843
▁Banker	-11.5846
▁happened	-11.5848
relations	-11.5848
▁colleague	-11.5853
▁Simon	-11.5855
▁proper	-11.5859
▁judgment	-11.5869
x	-11.587
wanted	-11.587
▁deputy	-11.5881
▁trucks	-11.589
coupon	-11.5895
▁41	-11.5897
▁advice	-11.5905
▁aides	-11.5905
▁rapidly	-11.5907
▁copper	-11.5909
▁surprise	-11.591
▁occurred	-11.5918
▁Trans	-11.592
▁engineer	-11.592
▁turning	-11.5925
▁definitive	-11.5926
city	-11.5929
2.4	-11.5932
La	-11.5933
▁deny	-11.5941
▁Bond	-11.5942
▁Nor	-11.5951
▁weather	-11.5952
▁advisers	-11.5961
▁sued	-11.597
risen	-11.5971
▁Don	-11.5974
▁student	-11.598
▁aware	-11.5981
ler	-11.5996
votes	-11.5997
distance	-11.5998
▁negotiate	-11.6
▁title	-11.6
▁criticiz	-11.6005
▁newspapers	-11.6005
▁extraordinar	-11.6013
energy	-11.6018
ur	-11.6018
▁trillion	-11.6018
▁threatened	-11.602
▁stopp	-11.6029
id	-11.603
▁renew	-11.6034
▁2.5	-11.6047
▁initiative	-11.6047
▁fallen	-11.6054
▁specialists	-11.6058
eased	-11.6061
▁Michigan	-11.6076
▁freedom	-11.6076
▁Fred	-11.6086
▁Bear	-11.6088
▁surprising	-11.6093
▁Israeli	-11.6097
▁resignation	-11.61
Communications	-11.6102
drew	-11.6104
2.6	-11.6105
▁prohibit	-11.6107
▁Just	-11.6118
▁inventory	-11.6122
▁chang	-11.6124
▁Report	-11.613
▁Disney	-11.6134
▁English	-11.6139
cent	-11.6141
▁aim	-11.6152
rang	-11.6152
eless	-11.6155
contract	-11.6166
▁contends	-11.6168
▁District	-11.6169
▁Mark	-11.617
▁600	-11.6175
ial	-11.6183
▁helping	-11.6188
▁constitutional	-11.6192
▁strongly	-11.6193
2.3	-11.6196
▁sees	-11.6206
▁lease	-11.6207
▁recalls	-11.6207
▁metric	-11.6211
▁react	-11.6221
▁scheme	-11.6222
▁afternoon	-11.6224
dicated	-11.6236
▁Lawrence	-11.6245
sensitive	-11.6248
standing	-11.6263
▁Mac	-11.6268
▁Nicaragua	-11.6278
minus	-11.6285
▁scientists	-11.6286
written	-11.6286
▁merchant	-11.6292
▁false	-11.6298
hand	-11.6298
ABC	-11.6306
▁acting	-11.6311
ver	-11.6313
▁Robins	-11.6318
Bache	-11.6322
development	-11.633
▁ounce	-11.6336
▁Current	-11.6338
▁Chase	-11.6342
▁publication	-11.6348
▁tobacco	-11.6357
▁Transportation	-11.6363
wear	-11.6379
▁crime	-11.6383
exempt	-11.6386
entered	-11.6387
flights	-11.6393
▁intent	-11.6396
▁None	-11.6419
▁Neverth	-11.6422
▁sentence	-11.6428
▁wake	-11.6432
▁heads	-11.6433
▁Food	-11.6435
▁1.2	-11.6445
work	-11.6448
▁Far	-11.6455
▁affairs	-11.6458
computer	-11.6464
ization	-11.6469
▁differences	-11.647
vo	-11.647
paid	-11.6474
▁recommend	-11.6474
▁Trump	-11.6484
▁mergers	-11.6484
▁defeat	-11.6491
▁speak	-11.6495
▁expense	-11.6495
▁promote	-11.6498
▁permanent	-11.6507
▁Wilson	-11.652
▁caution	-11.6525
▁summit	-11.6528
▁massive	-11.6532
ax	-11.6534
▁sugar	-11.6537
▁jump	-11.6538
▁plead	-11.6544
▁Dole	-11.6547
vision	-11.6549
lin	-11.6549
▁earn	-11.6565
▁wealth	-11.6566
▁presence	-11.6574
▁Futures	-11.6576
▁recover	-11.6584
▁broke	-11.6591
▁monitor	-11.6591
▁takeovers	-11.6592
2.7	-11.6593
lay	-11.66
▁analysis	-11.6607
▁Harvard	-11.661
▁entertainment	-11.6611
▁Sir	-11.6614
▁Why	-11.6623
▁consecutive	-11.6624
▁Cleveland	-11.663
pool	-11.6633
▁enable	-11.664
offerings	-11.6657
▁healthy	-11.6663
▁Pennsylvania	-11.6666
▁managed	-11.6667
▁burden	-11.6673
▁lobby	-11.6684
▁incentives	-11.6688
filled	-11.671
50,000	-11.6711
yen	-11.6711
▁crop	-11.6713
.375	-11.672
▁grain	-11.6721
▁oppos	-11.6723
▁video	-11.6725
▁medium	-11.6727
▁default	-11.6727
accounted	-11.6733
▁letters	-11.6736
▁Drug	-11.6738
▁Reynolds	-11.6752
▁occur	-11.6761
▁EC	-11.6764
▁demands	-11.6768
street	-11.6769
et	-11.6773
▁doubled	-11.6778
▁love	-11.6783
▁projection	-11.6787
40	-11.6788
▁explains	-11.6791
drink	-11.6795
▁subsid	-11.6797
▁route	-11.6799
▁Democrat	-11.6806
▁resulting	-11.6808
security	-11.6812
▁Attorney	-11.6812
▁Asian	-11.6818
▁poll	-11.6819
brand	-11.6827
▁safe	-11.6834
▁52	-11.6843
▁thinking	-11.6845
▁committed	-11.6848
▁Dean	-11.6854
▁opponent	-11.6858
minute	-11.6862
8.5	-11.6865
▁match	-11.6866
▁1.1	-11.6871
ran	-11.6871
▁Green	-11.6873
▁electrical	-11.6875
developed	-11.6875
▁Stephen	-11.688
▁incident	-11.6883
▁compensation	-11.6884
▁statistics	-11.6885
▁prefer	-11.6886
▁Denver	-11.6889
▁Government	-11.6895
▁controversial	-11.6899
its	-11.6906
▁participate	-11.6908
▁detail	-11.6911
▁54	-11.6911
▁dead	-11.6917
born	-11.6926
▁Coast	-11.6926
▁States	-11.6927
▁Commodity	-11.6928
purchase	-11.6928
2.1	-11.6928
after	-11.6931
▁Product	-11.6937
▁reputation	-11.6952
▁citizens	-11.6952
▁attitude	-11.6953
▁virtual	-11.6953
▁quick	-11.6953
▁Bork	-11.6969
dealer	-11.6978
use	-11.6982
▁recovery	-11.6983
▁departure	-11.6984
▁fresh	-11.6989
▁consideration	-11.6992
▁Machines	-11.7
▁urge	-11.7007
▁engage	-11.7009
▁Trad	-11.7009
order	-11.7022
▁afford	-11.7022
▁maximum	-11.7028
▁Al	-11.7031
▁Davis	-11.7035
bridge	-11.7036
▁check	-11.7036
Hill	-11.7047
Each	-11.7049
▁bolster	-11.7053
▁BankAmerica	-11.7054
▁uncertainty	-11.7067
becomes	-11.7078
▁RJR	-11.7092
▁Communist	-11.7093
▁convert	-11.7102
▁Export	-11.7104
▁indicator	-11.7105
▁variety	-11.7109
▁Any	-11.711
▁cards	-11.711
ville	-11.712
tech	-11.7121
office	-11.7122
▁residents	-11.7124
▁branch	-11.7135
follows	-11.7136
▁procedures	-11.714
drawn	-11.7142
▁complain	-11.7142
▁receiving	-11.7143
trip	-11.7147
▁Asia	-11.7155
▁120	-11.7163
▁struggle	-11.7167
▁administrative	-11.7177
3.8	-11.7178
▁convention	-11.718
▁otherwise	-11.7185
▁reverse	-11.7185
▁wages	-11.7189
5.5	-11.7198
▁subsequent	-11.7201
▁nature	-11.7207
Cola	-11.7208
▁pounds	-11.7214
▁playing	-11.7216
ie	-11.7223
▁Le	-11.7223
▁Kohl	-11.7234
ntil	-11.7237
▁organizations	-11.7244
Bar	-11.7245
▁10,000	-11.7251
▁53	-11.7254
▁emergency	-11.7254
▁subsidiari	-11.7254
▁decades	-11.7259
▁judges	-11.7264
▁elsewhere	-11.7267
▁Mon	-11.7275
▁worrie	-11.73
▁choose	-11.7303
▁buyout	-11.7315
▁spark	-11.7316
▁Turner	-11.7319
▁army	-11.7324
▁remember	-11.733
ir	-11.7336
▁seriously	-11.7338
▁justice	-11.7347
cell	-11.7353
den	-11.7355
▁Middle	-11.7358
▁Henry	-11.7378
▁personnel	-11.7378
linked	-11.7378
▁FDIC	-11.7397
▁cross	-11.7398
▁affair	-11.7398
▁Bill	-11.7406
ant	-11.7406
▁pressures	-11.741
▁crowd	-11.7418
▁agricultural	-11.7428
▁plaintiff	-11.7431
▁Sam	-11.7434
▁guarantee	-11.744
currency	-11.7442
▁warning	-11.7444
▁par	-11.7446
▁Every	-11.7451
looking	-11.7452
▁ratio	-11.7455
▁gap	-11.7455
▁knowledge	-11.7456
▁Hampshire	-11.7457
▁Valley	-11.7457
boy	-11.7457
▁cheap	-11.7462
ee	-11.7462
▁Hart	-11.7465
X	-11.7466
▁aide	-11.7472
▁silver	-11.7473
▁display	-11.7473
bringing	-11.7477
▁shut	-11.7479
2.5	-11.7481
▁Island	-11.7485
built	-11.7486
▁broader	-11.7487
▁drought	-11.749
▁Telephone	-11.7497
▁dismissed	-11.7501
▁Vietnam	-11.7511
30	-11.7512
author	-11.7522
▁bottom	-11.7532
▁audit	-11.754
▁Gillette	-11.7544
▁Iraq	-11.7546
▁Inter	-11.7547
mo	-11.7554
▁withdraw	-11.7555
▁depressed	-11.7556
▁Vice	-11.7558
plant	-11.756
▁blacks	-11.756
▁Bancorp	-11.7561
▁500,000	-11.7564
▁applications	-11.7566
▁peak	-11.7573
▁CIA	-11.7578
Con	-11.7581
29	-11.7596
▁resolve	-11.7597
▁theory	-11.76
▁nomination	-11.7603
▁sanctions	-11.7604
10	-11.7608
▁Executive	-11.7611
▁electric	-11.7611
▁represented	-11.7611
mar	-11.762
quarters	-11.7627
▁fill	-11.7634
▁seasonally	-11.7635
▁requir	-11.7641
square	-11.7643
▁Jim	-11.765
place	-11.7659
▁optimistic	-11.7664
▁Frankfurt	-11.7676
▁trends	-11.7684
▁destroy	-11.7697
▁meant	-11.7704
rising	-11.7712
▁pricing	-11.7715
▁touch	-11.7718
▁steady	-11.7733
▁users	-11.7737
▁usual	-11.7739
▁subcommittee	-11.774
▁gasoline	-11.774
▁Lambert	-11.7746
▁Minneapolis	-11.7747
▁unfair	-11.7747
era	-11.7763
LC	-11.7763
▁Northern	-11.7769
u	-11.7776
▁object	-11.7777
▁Once	-11.7777
▁extent	-11.7781
viewed	-11.7782
▁buildings	-11.7782
▁privately	-11.7783
▁bonus	-11.7785
▁Banking	-11.7797
▁metals	-11.7797
▁Dan	-11.7798
▁suitor	-11.7802
▁cooperation	-11.7809
recapitalization	-11.7816
0.5	-11.7818
▁exploration	-11.7825
▁stands	-11.7826
▁FCC	-11.7829
size	-11.7836
▁attacks	-11.7842
3.2	-11.7843
▁solution	-11.7845
▁supporter	-11.7848
ber	-11.7857
▁feeling	-11.7862
▁wave	-11.787
▁consistent	-11.7871
wa	-11.7872
▁virus	-11.7874
▁Coca	-11.7879
▁stable	-11.7888
kill	-11.7899
▁bear	-11.7901
▁Walter	-11.7903
▁resolution	-11.7904
▁deadline	-11.791
im	-11.7914
▁Ka	-11.7914
▁intention	-11.7921
away	-11.7922
ating	-11.7923
▁concentrate	-11.7928
▁danger	-11.793
▁failing	-11.7932
▁desire	-11.7937
▁1960	-11.7937
▁intelligence	-11.7939
▁Marine	-11.7945
▁Source	-11.7947
▁ventures	-11.7947
ter	-11.7949
liability	-11.795
▁raising	-11.7952
▁River	-11.7958
▁57	-11.7963
link	-11.7968
▁resume	-11.7968
▁barr	-11.7971
capital	-11.7981
holding	-11.7985
▁Worker	-11.7989
▁concessions	-11.799
▁switch	-11.7994
-3	-11.7998
▁Agriculture	-11.8003
▁resist	-11.8006
▁operators	-11.801
cy	-11.8018
▁minor	-11.8024
▁barrier	-11.8024
leasing	-11.8029
▁Daniel	-11.8034
▁weekly	-11.8039
.625	-11.804
stein	-11.8044
▁friend	-11.8045
▁training	-11.8046
▁submitt	-11.805
▁mother	-11.8051
▁blame	-11.8053
9.5	-11.8055
▁exposure	-11.8059
▁Williams	-11.8061
▁manufacturer	-11.8062
facing	-11.8069
world	-11.8074
Land	-11.8074
▁powers	-11.8079
▁crucial	-11.8081
▁cabinet	-11.8081
anticipate	-11.8081
▁install	-11.8087
▁Arthur	-11.809
position	-11.8101
▁Virginia	-11.8103
▁slide	-11.8105
▁secondary	-11.8105
▁Auto	-11.8108
▁scientific	-11.8111
▁institution	-11.8113
running	-11.8116
▁pledge	-11.8117
▁satellite	-11.8117
▁Maxwell	-11.8123
tex	-11.8132
sold	-11.8146
▁Illinois	-11.8146
▁1991	-11.8149
▁consumption	-11.8151
▁reject	-11.8157
▁metal	-11.8159
rain	-11.816
▁sufficient	-11.8161
▁liabiliti	-11.8164
▁Persian	-11.8166
thirds	-11.8166
1.2	-11.8167
▁payable	-11.8182
▁dramatic	-11.8184
▁Tele	-11.819
▁tentative	-11.8194
6.5	-11.8194
▁fit	-11.8196
▁closer	-11.8198
ists	-11.82
▁Consolidated	-11.8201
▁resistance	-11.8202
proved	-11.8211
▁transfer	-11.8211
▁restructure	-11.8216
15	-11.8223
▁founder	-11.8226
▁Can	-11.8229
type	-11.8232
▁mine	-11.8234
▁adequate	-11.8237
part	-11.8238
▁enterprise	-11.8238
▁admit	-11.8247
▁Bay	-11.8248
▁physician	-11.8248
▁enormous	-11.8252
▁caught	-11.8259
▁Bob	-11.8265
4,000	-11.8276
credit	-11.8277
▁marked	-11.8279
▁husband	-11.8279
▁Di	-11.8285
▁Brazilian	-11.8288
▁India	-11.8291
▁newsletter	-11.8309
▁merchandise	-11.831
▁experiment	-11.831
urging	-11.8315
va	-11.8316
▁controversy	-11.8317
found	-11.8319
▁lift	-11.8322
▁productivity	-11.8324
▁Northwest	-11.8327
▁Volcker	-11.8331
▁mount	-11.8332
lots	-11.8337
▁Stearns	-11.8338
▁places	-11.8346
▁FSLIC	-11.836
om	-11.8364
▁eager	-11.8367
▁ease	-11.8368
▁THE	-11.837
▁Royal	-11.8375
▁Gary	-11.8377
▁solid	-11.8378
▁Kim	-11.8382
▁1.3	-11.8386
▁stories	-11.8388
▁ticket	-11.8397
name	-11.84
ball	-11.8408
▁59	-11.8409
70	-11.8411
refore	-11.8415
ge	-11.8419
▁argument	-11.842
▁NBC	-11.842
▁asks	-11.8421
▁Georgia	-11.8423
▁Pont	-11.8425
▁boom	-11.8427
pill	-11.8428
▁wheat	-11.843
2.9	-11.8433
put	-11.8433
▁Farmers	-11.8435
▁puts	-11.8437
ra	-11.8441
▁suppliers	-11.8444
▁confident	-11.8456
▁reasonable	-11.8462
▁Exxon	-11.847
▁Bass	-11.8473
▁ministers	-11.8478
4.2	-11.8481
Care	-11.8482
0.6	-11.8483
▁franchise	-11.8484
CO	-11.8487
▁moral	-11.8496
story	-11.8498
▁written	-11.85
ten	-11.8503
gen	-11.8503
▁theater	-11.8504
▁certificate	-11.8514
▁sole	-11.8517
venture	-11.852
▁devices	-11.8521
73	-11.854
center	-11.8543
▁broadcast	-11.8545
covering	-11.8545
million	-11.8548
▁negotiated	-11.8551
▁Edelman	-11.8551
▁Ross	-11.8552
weight	-11.8553
▁plastic	-11.8566
▁regime	-11.8568
▁violated	-11.8571
any	-11.8573
ions	-11.8573
▁demonstrate	-11.8574
▁taxpayers	-11.8577
▁hoped	-11.858
Pacific	-11.8583
earnings	-11.8585
▁section	-11.8587
▁engines	-11.86
▁Control	-11.8603
▁Christmas	-11.8604
▁Republic	-11.8606
▁cautious	-11.8607
▁strategist	-11.861
sky	-11.8613
▁Del	-11.8615
▁specialist	-11.8617
▁automotive	-11.8619
▁outcome	-11.8619
▁camp	-11.8619
▁sets	-11.8622
▁shot	-11.8623
▁Greenspan	-11.8625
▁Lloyd	-11.8625
il	-11.8632
▁bullish	-11.8633
45	-11.8643
▁worker	-11.8644
ise	-11.8649
▁element	-11.8655
▁vast	-11.8655
▁victims	-11.8659
▁describe	-11.8661
▁Russian	-11.8661
88	-11.8663
▁winner	-11.8665
0.2	-11.8667
▁Geneva	-11.867
▁Nicaraguan	-11.8677
▁Hill	-11.8677
smoking	-11.8678
6,000	-11.8691
haz	-11.8693
▁Community	-11.8693
▁throw	-11.8693
3.3	-11.8695
urg	-11.8695
▁37.5	-11.8697
▁impossible	-11.87
▁Dealers	-11.8701
77	-11.8701
we	-11.8703
▁recall	-11.8705
▁Ar	-11.8708
sum	-11.8711
▁council	-11.8715
oc	-11.8717
pound	-11.8721
▁absolute	-11.8723
▁complained	-11.8726
▁Her	-11.8731
round	-11.8734
▁Broadcasting	-11.874
▁Nikkei	-11.8745
▁BP	-11.8748
defense	-11.8749
vi	-11.875
beat	-11.8755
▁routine	-11.8761
▁58	-11.8765
▁poison	-11.8765
master	-11.8778
unit	-11.878
▁nominee	-11.8791
▁draft	-11.8795
▁approximate	-11.8795
▁institute	-11.8797
▁observer	-11.8798
▁Day	-11.8799
na	-11.88
▁Beside	-11.8806
▁Delta	-11.8807
▁56	-11.8811
▁consultants	-11.8813
▁Diego	-11.8814
▁Hills	-11.8819
▁listed	-11.8824
▁Arabia	-11.8824
▁modern	-11.8831
wing	-11.8832
▁Barney	-11.8837
Van	-11.8847
▁Phillips	-11.8853
▁industrials	-11.8853
chairman	-11.8854
▁border	-11.8854
▁High	-11.8857
▁disaster	-11.8859
▁successor	-11.886
front	-11.8864
duty	-11.8867
▁wall	-11.8868
▁circumstances	-11.887
▁credits	-11.8874
▁extensive	-11.8875
▁covered	-11.8876
▁mass	-11.8879
3.4	-11.888
▁Rose	-11.888
serving	-11.8885
▁Mortgage	-11.889
▁cap	-11.8902
▁Shultz	-11.8905
drive	-11.8908
▁fighting	-11.8908
▁Spain	-11.8909
▁US	-11.8912
▁legislative	-11.8913
▁apparel	-11.8919
▁shrink	-11.892
4.3	-11.8923
▁1978	-11.8924
▁oversee	-11.8924
▁unable	-11.8926
▁EPA	-11.8937
▁improv	-11.8944
▁stockholders	-11.8954
fall	-11.8954
ate	-11.896
▁fired	-11.896
▁Sch	-11.8967
▁Red	-11.8974
▁Dome	-11.8982
▁reluctant	-11.8983
▁prominent	-11.8984
98	-11.8985
driven	-11.8989
▁Cooper	-11.899
▁Bundesbank	-11.899
▁Allegis	-11.899
4.4	-11.8993
group	-11.8998
▁conclusion	-11.8998
▁62	-11.8999
white	-11.9
▁eliminat	-11.9002
▁draw	-11.9009
▁sweeten	-11.9012
▁Eurobond	-11.9014
traffic	-11.9014
▁supermarket	-11.9014
▁unexpected	-11.9015
▁redemption	-11.9021
▁Mobil	-11.9028
▁nervous	-11.9029
▁Mercantile	-11.9037
▁retire	-11.9047
▁bar	-11.9054
▁movies	-11.9059
▁Sterling	-11.906
▁papers	-11.9062
are	-11.9062
wise	-11.9066
▁persuade	-11.9076
fifth	-11.9076
▁Edison	-11.9084
▁withdrawal	-11.9099
▁Montreal	-11.9099
▁Constitution	-11.91
▁incentive	-11.9105
▁dangerous	-11.9115
▁electricity	-11.9115
ian	-11.9116
▁coffee	-11.9122
edge	-11.9129
▁800	-11.9138
casino	-11.9138
ia	-11.914
▁Hunt	-11.9146
▁bargain	-11.9148
▁error	-11.9154
▁welcome	-11.916
▁inadequate	-11.9162
▁clean	-11.9166
product	-11.9168
futures	-11.917
tank	-11.9172
mill	-11.9172
▁applied	-11.9175
▁imported	-11.9177
▁sluggish	-11.9178
▁borrower	-11.918
▁Further	-11.9186
▁location	-11.9187
▁sentiment	-11.9194
83	-11.9197
▁negotiator	-11.9204
▁extension	-11.9209
person	-11.9215
▁survive	-11.9216
▁behavior	-11.9217
model	-11.9219
▁whatever	-11.922
▁accountant	-11.9222
▁train	-11.9222
▁shopping	-11.9225
▁games	-11.9227
74	-11.9232
▁McDonald	-11.9233
▁layoff	-11.9237
▁Hospital	-11.9241
▁types	-11.9247
▁mining	-11.9247
delivery	-11.9248
inger	-11.9253
▁Cable	-11.9258
▁Lake	-11.9265
▁rapid	-11.9266
▁regulation	-11.9268
sales	-11.9271
▁Press	-11.9273
television	-11.9275
▁Carolina	-11.9281
▁Chief	-11.9281
▁Good	-11.9282
▁McDonnell	-11.9289
des	-11.929
▁radical	-11.9297
▁Allen	-11.9298
seat	-11.9304
label	-11.9309
▁61	-11.9314
▁dominate	-11.9316
training	-11.9316
▁Micro	-11.932
▁reading	-11.932
io	-11.932
▁liquidity	-11.9321
7,000	-11.933
sellers	-11.9334
▁tied	-11.9343
▁grown	-11.9344
3.6	-11.9344
▁abuse	-11.9345
3.7	-11.9361
▁barrel	-11.9364
▁Va	-11.9369
pro	-11.9369
5.7	-11.937
▁contributions	-11.9379
▁anticipat	-11.9384
▁Henley	-11.9385
▁Toyota	-11.9401
▁Hotel	-11.9402
▁Mae	-11.9402
row	-11.9408
▁Entertainment	-11.9417
▁vehicle	-11.9419
fish	-11.9422
▁convict	-11.9423
ak	-11.9425
▁neighbor	-11.9427
▁Statistic	-11.9433
▁Louisiana	-11.9434
▁Lord	-11.9435
ba	-11.9439
▁85	-11.9439
even	-11.9443
1.25	-11.9444
▁recruit	-11.9453
▁stemm	-11.9455
▁road	-11.9457
▁Hanover	-11.9458
5.1	-11.9461
35	-11.9462
▁Technologies	-11.9466
▁consent	-11.9466
elect	-11.9473
▁Argentina	-11.9474
▁accelerate	-11.9482
▁Bruce	-11.9482
▁FAA	-11.9491
▁aspect	-11.9495
▁salary	-11.9499
81	-11.9501
▁Right	-11.9501
media	-11.9502
▁exclusive	-11.9507
▁soldier	-11.9508
▁dis	-11.9511
waste	-11.9513
▁memo	-11.9514
▁load	-11.9525
ach	-11.9525
▁telling	-11.9529
ice	-11.9533
▁concept	-11.9535
Quebec	-11.9538
▁congress	-11.9539
▁swap	-11.9539
▁democracy	-11.9541
▁Blue	-11.9546
bust	-11.9549
▁Enterprises	-11.9556
Marc	-11.9557
▁practical	-11.956
▁seeing	-11.9564
▁arbitrage	-11.9564
▁coalition	-11.9564
▁Budget	-11.9564
▁holder	-11.9566
ford	-11.9568
▁tight	-11.9571
▁assert	-11.9572
growth	-11.9579
▁issu	-11.9582
di	-11.9593
▁underwriting	-11.96
high	-11.9601
▁permitt	-11.9602
box	-11.9603
▁duties	-11.9605
▁requested	-11.9605
dog	-11.9607
▁Seoul	-11.9613
oriented	-11.962
▁discontinued	-11.9621
▁club	-11.9623
▁fellow	-11.9629
▁sheet	-11.9636
ride	-11.9637
▁chances	-11.964
0.3	-11.9641
▁penalt	-11.9646
▁Hughes	-11.9647
▁Kenne	-11.9648
ish	-11.965
ified	-11.9652
▁forms	-11.9657
area	-11.9658
▁document	-11.9664
ette	-11.9671
▁aluminum	-11.9671
keeping	-11.9676
ocal	-11.9678
▁church	-11.9682
▁Fort	-11.9687
▁novel	-11.9692
▁presented	-11.9694
▁perfect	-11.9694
▁favorable	-11.9695
▁Interstate	-11.9705
▁repair	-11.9712
▁activist	-11.9714
▁seasonal	-11.9719
▁involvement	-11.973
v	-11.9731
▁distributor	-11.9734
▁allege	-11.9734
▁speculate	-11.9741
▁Peabody	-11.9746
▁IMF	-11.9746
▁Dennis	-11.9746
▁eye	-11.9761
▁calculated	-11.9763
▁Index	-11.9763
bus	-11.9764
▁Miss	-11.9764
▁upward	-11.9766
3.1	-11.9767
▁Tax	-11.9769
8.8	-11.9769
vulnerable	-11.9771
▁Say	-11.9775
▁supplier	-11.9784
▁EDT	-11.9797
▁Dutch	-11.9797
▁tighten	-11.9799
▁gradual	-11.9805
▁temporarily	-11.9805
▁@	-11.9807
▁Your	-11.9807
▁Indiana	-11.9817
▁Midland	-11.9823
▁shuttle	-11.9824
ide	-11.9829
▁curb	-11.9831
▁700	-11.9831
▁Foods	-11.9831
▁guideline	-11.9833
▁predicts	-11.9838
▁alliance	-11.9838
▁actively	-11.9839
▁sit	-11.9841
78	-11.9844
▁Nomura	-11.9847
tool	-11.9855
▁culture	-11.9855
▁improper	-11.9855
▁Intel	-11.9856
▁ignore	-11.9858
▁deregulation	-11.9864
▁Burlington	-11.9872
country	-11.9875
ring	-11.9879
▁Pickens	-11.988
▁Walsh	-11.9888
▁happens	-11.9889
▁Occidental	-11.9889
▁branche	-11.989
goals	-11.9891
4.6	-11.9891
light	-11.9891
▁Man	-11.9895
▁slowdown	-11.9899
reaching	-11.9899
rely	-11.9902
da	-11.9904
▁CORP	-11.9912
.125	-11.9916
tested	-11.9918
89	-11.9919
research	-11.9931
▁kids	-11.9931
▁UAL	-11.9934
▁turns	-11.9937
▁method	-11.9938
tive	-11.9938
▁blamed	-11.9941
▁Ga	-11.9942
▁Indian	-11.9946
▁Bever	-11.9947
▁1.7	-11.9956
▁strict	-11.9956
▁theme	-11.996
▁Hudson	-11.996
▁Tom	-11.9963
erhaps	-11.9965
ries	-11.9968
▁asserted	-11.9971
book	-11.9972
▁hiring	-11.9983
van	-11.9991
▁evening	-11.9993
19	-11.9996
▁studio	-12.0001
▁conclude	-12.0002
▁diplomat	-12.0006
▁tension	-12.0019
hu	-12.0022
1.4	-12.0026
▁Thompson	-12.0034
▁ends	-12.0034
▁investigations	-12.0036
▁advocate	-12.0037
split	-12.0059
▁religious	-12.006
▁happy	-12.0062
▁exception	-12.0067
▁motion	-12.007
▁screen	-12.0077
▁tiny	-12.0088
▁1.4	-12.0091
disk	-12.0094
▁delayed	-12.0098
▁memory	-12.0099
▁waste	-12.0101
fraud	-12.0101
▁expenditure	-12.0103
▁leak	-12.0106
inter	-12.0113
▁advertiser	-12.0117
▁focused	-12.0131
▁weaker	-12.0132
▁maybe	-12.0136
▁Midwest	-12.0137
gene	-12.0143
▁developments	-12.0143
▁Pillsbury	-12.0146
▁intense	-12.0153
▁Spanish	-12.0155
pe	-12.0159
▁round	-12.016
▁precious	-12.0166
▁retailing	-12.0169
▁winning	-12.0171
gent	-12.0176
arranged	-12.0178
enforcement	-12.0178
76	-12.0189
▁Honda	-12.019
refund	-12.0194
sized	-12.0194
92	-12.0207
izing	-12.0207
▁completion	-12.0208
▁rallie	-12.0209
▁CD	-12.0213
▁Northrop	-12.0216
▁Palestinian	-12.0226
entry	-12.0229
▁camera	-12.0238
▁Cincinnati	-12.0242
▁aside	-12.0247
▁mis	-12.0248
▁Polan	-12.0248
▁Is	-12.025
▁injunction	-12.0252
▁overnight	-12.0256
▁commodities	-12.026
▁beer	-12.0266
▁Robertson	-12.0267
▁purchasing	-12.0267
▁GNP	-12.0269
▁dream	-12.0269
counts	-12.0273
▁Roger	-12.0273
5.3	-12.0285
▁remov	-12.0288
ranking	-12.0288
▁phase	-12.0292
▁arm	-12.0295
▁confidential	-12.0295
▁Witter	-12.0295
▁numero	-12.0299
▁teach	-12.0301
▁fail	-12.0302
3.9	-12.0306
▁welfare	-12.0317
▁volatil	-12.0319
▁College	-12.032
Com	-12.0321
circuit	-12.0322
65	-12.0324
craft	-12.0326
▁gift	-12.0326
▁Recent	-12.0331
ized	-12.0335
▁Lincoln	-12.0339
▁device	-12.034
▁Society	-12.0341
▁implication	-12.0342
▁programming	-12.0342
▁Mesa	-12.0344
6.8	-12.0345
▁harder	-12.0349
▁hop	-12.0351
▁auditor	-12.0368
▁table	-12.037
warm	-12.0371
▁Wood	-12.0372
Va	-12.0375
▁promotion	-12.0376
▁site	-12.0382
7.8	-12.0387
▁blow	-12.0393
bound	-12.0394
▁exist	-12.0395
marketing	-12.0396
4.8	-12.0398
86	-12.0399
▁decrease	-12.0402
▁Generale	-12.0406
▁application	-12.0406
ung	-12.0408
▁Campbell	-12.0409
▁Medicare	-12.0411
▁USX	-12.0411
▁cold	-12.0419
port	-12.042
▁fines	-12.0421
▁suggestion	-12.0429
▁assembly	-12.0445
▁Cent	-12.0447
0.7	-12.045
charter	-12.0453
5.2	-12.0455
▁Light	-12.0456
▁historical	-12.0458
▁ships	-12.0458
▁slight	-12.0458
79	-12.046
▁sex	-12.0461
▁Southwest	-12.0465
20,000	-12.0468
▁pharmaceutical	-12.0472
▁64	-12.0474
6.7	-12.0474
ot	-12.048
▁slowed	-12.0482
▁textile	-12.0482
0.4	-12.0485
▁Farm	-12.0491
8.2	-12.0492
5.8	-12.0492
▁dealer	-12.0494
▁resign	-12.0495
▁Little	-12.05
ki	-12.0502
▁raises	-12.0505
▁Arizona	-12.0509
▁Hollywood	-12.0509
▁consensus	-12.0511
▁keeping	-12.0513
pa	-12.0515
▁enact	-12.0516
▁bull	-12.0526
▁Airways	-12.0528
▁fields	-12.0528
5.6	-12.0535
rental	-12.0541
▁200,000	-12.0546
farm	-12.0551
▁expires	-12.0562
sen	-12.0577
▁Lil	-12.0578
▁listen	-12.0581
▁jail	-12.0583
▁Moore	-12.0583
▁agenda	-12.0591
▁Club	-12.0591
▁Sweden	-12.0591
▁Sony	-12.0592
▁Saatchi	-12.0592
▁Ho	-12.0595
▁participation	-12.0598
discrimination	-12.06
shop	-12.0601
▁Let	-12.0603
investment	-12.0605
▁III	-12.0609
▁winter	-12.061
▁respective	-12.0614
▁businessman	-12.0622
workers	-12.0627
▁necessari	-12.0627
▁comparison	-12.0627
▁Network	-12.0628
▁escape	-12.0629
4.9	-12.0633
▁shipping	-12.0633
ep	-12.0633
▁Conservative	-12.0636
▁volatile	-12.0639
writers	-12.0639
owed	-12.0642
30,000	-12.0645
▁Bankruptcy	-12.0645
fourth	-12.0647
▁maintenance	-12.0647
▁function	-12.0648
tumbled	-12.0648
▁island	-12.0649
ING	-12.0651
non	-12.0658
▁Amoco	-12.0664
▁1.6	-12.0666
▁reveal	-12.0666
▁foreigners	-12.0669
▁Fair	-12.0669
general	-12.0673
ap	-12.0684
▁passengers	-12.0684
▁Beach	-12.0686
production	-12.0688
▁hair	-12.0689
▁edition	-12.0694
▁plays	-12.0696
▁Lewis	-12.0696
gotte	-12.0697
▁rural	-12.07
eat	-12.0703
▁swing	-12.0705
97	-12.0706
▁discussion	-12.0706
▁dry	-12.0707
pack	-12.0707
▁cease	-12.0709
▁politically	-12.0713
4.7	-12.0715
▁compound	-12.0719
grade	-12.0719
▁Who	-12.072
armed	-12.0724
▁younger	-12.0724
▁NATO	-12.0728
▁pleas	-12.0729
▁collection	-12.0734
examine	-12.0735
▁underly	-12.0737
▁Net	-12.0741
▁features	-12.075
acres	-12.075
▁slower	-12.0753
performance	-12.0756
▁plent	-12.0758
▁nearby	-12.0759
▁See	-12.0763
▁constant	-12.0765
▁invite	-12.0765
▁Mil	-12.0769
▁shake	-12.0774
bill	-12.0775
▁struggl	-12.0784
▁feature	-12.0784
PS	-12.0792
▁Minnesota	-12.0793
▁Perot	-12.0793
meaning	-12.0795
▁Alaska	-12.0796
union	-12.0802
▁Nissan	-12.0802
▁consortium	-12.0802
▁downgrade	-12.0803
▁favorite	-12.0804
5.4	-12.0807
▁debtor	-12.081
▁lend	-12.0811
▁Fidelity	-12.0811
▁baby	-12.0812
overhaul	-12.0813
1.5	-12.0816
▁uncertain	-12.0818
▁drawing	-12.0821
▁bulk	-12.0821
▁treated	-12.0823
▁absence	-12.083
competitive	-12.0832
▁3.5	-12.0834
Illinois	-12.0837
8.4	-12.0838
▁disappointed	-12.084
▁organized	-12.0847
▁cattle	-12.0848
pan	-12.0849
▁MCI	-12.0849
▁merit	-12.085
▁Ivan	-12.0853
▁Panama	-12.0858
▁transferr	-12.0858
▁180	-12.0859
▁segment	-12.0863
▁Prof	-12.0863
▁Brands	-12.0869
▁ministry	-12.0872
▁Rock	-12.0872
▁presidenc	-12.0874
▁bitter	-12.0884
▁divest	-12.0887
▁everybody	-12.0888
▁plung	-12.0889
▁beef	-12.089
case	-12.0891
ations	-12.0891
▁Nev	-12.0894
▁1969	-12.0896
recorded	-12.0901
league	-12.0905
▁350	-12.0907
▁strategies	-12.0914
▁TWA	-12.0914
▁luxury	-12.0915
▁machinery	-12.0917
96	-12.0917
green	-12.0919
face	-12.092
▁Steven	-12.0922
source	-12.0927
available	-12.0943
87	-12.0947
▁surface	-12.0952
▁reality	-12.0961
▁MCA	-12.0962
▁Scott	-12.0963
dia	-12.0965
3.5	-12.0965
lock	-12.0969
▁command	-12.0972
▁fly	-12.0973
ED	-12.0978
▁patient	-12.0999
▁Stocks	-12.1004
ta	-12.1007
▁Final	-12.102
▁tour	-12.1021
hat	-12.1024
▁threaten	-12.1029
pay	-12.1042
▁Macmillan	-12.1046
▁cool	-12.105
▁films	-12.1054
▁Allegheny	-12.1056
▁Lotus	-12.1056
▁Samuel	-12.1056
▁Unlike	-12.1056
▁restrict	-12.1057
4.1	-12.1059
▁Telegraph	-12.1065
▁Oklahoma	-12.1065
▁potentially	-12.1067
have	-12.1067
▁belief	-12.107
▁liability	-12.1071
▁guide	-12.1077
▁Zealand	-12.1084
mining	-12.1093
named	-12.1099
works	-12.11
▁wholesale	-12.1108
sea	-12.1109
▁Fire	-12.1111
trained	-12.1116
▁125	-12.112
▁length	-12.1121
ful	-12.113
flying	-12.113
20	-12.1131
▁Gramm	-12.1132
▁Wis	-12.1134
insured	-12.1134
▁Worth	-12.1137
parts	-12.1137
▁wrongdoing	-12.1142
▁USAir	-12.1142
▁secured	-12.1145
health	-12.1147
cle	-12.1148
▁wish	-12.115
▁Murdoch	-12.1151
▁heat	-12.1162
▁Microsoft	-12.1164
▁talent	-12.1171
▁guy	-12.1176
▁economics	-12.1179
▁brother	-12.1183
▁INC	-12.1183
▁Ray	-12.1185
8,000	-12.1186
▁violence	-12.1188
▁turnaround	-12.119
▁payroll	-12.119
sale	-12.1194
forth	-12.1197
▁vigorous	-12.1199
▁southern	-12.12
shed	-12.12
▁slowly	-12.1207
NBC	-12.1208
▁equally	-12.1209
▁restore	-12.1212
▁quit	-12.1215
shar	-12.1218
▁onto	-12.1219
▁Dai	-12.1222
▁conversion	-12.1223
▁Rich	-12.1225
▁Tri	-12.1226
▁Four	-12.1229
▁catch	-12.1233
▁controll	-12.1236
rub	-12.1237
▁sectors	-12.1237
packaging	-12.1238
▁99	-12.1242
▁canno	-12.1243
hall	-12.1246
▁neighborhood	-12.1248
lies	-12.1249
▁Christian	-12.1251
inch	-12.1251
▁divid	-12.1255
▁prepar	-12.1256
▁revolution	-12.1256
▁Joe	-12.1256
▁vary	-12.1259
▁purpose	-12.1265
▁Gordon	-12.1266
cast	-12.1266
▁Science	-12.1269
communist	-12.1276
▁killing	-12.1293
▁straight	-12.1294
▁notion	-12.1296
▁bureau	-12.1296
▁Common	-12.1297
▁backing	-12.1298
▁cheaper	-12.1298
▁Whit	-12.1301
▁formula	-12.1306
shelter	-12.1309
▁Asset	-12.1309
84	-12.1313
▁NASA	-12.1316
nic	-12.1317
▁Ba	-12.1318
Senate	-12.1319
▁Late	-12.132
▁hire	-12.1321
▁businessmen	-12.1332
▁scene	-12.1332
▁Utah	-12.1336
tie	-12.1338
▁steep	-12.1344
efficiency	-12.1345
▁economi	-12.1345
occupie	-12.1355
▁retreat	-12.1363
▁graduate	-12.1364
▁Company	-12.1365
▁benchmark	-12.1365
▁foundation	-12.1373
▁Capitol	-12.1375
▁Short	-12.1375
▁slash	-12.1376
▁explained	-12.1377
▁Pittsburgh	-12.1378
loyal	-12.1379
▁converted	-12.1389
93	-12.1391
▁Philippines	-12.1397
▁encouraging	-12.1404
▁Wang	-12.1406
ick	-12.1407
shot	-12.1414
▁glass	-12.1416
active	-12.1417
debt	-12.1422
▁northern	-12.1424
▁statute	-12.1424
▁Much	-12.1424
▁jet	-12.1426
▁ought	-12.1428
empt	-12.1431
▁agrees	-12.1437
▁sophisticat	-12.1444
print	-12.1444
military	-12.1445
▁Met	-12.1447
▁assumed	-12.1448
9.9	-12.145
bi	-12.1452
▁physical	-12.1454
▁Taylor	-12.1454
▁elderly	-12.1456
consolidated	-12.1457
▁Will	-12.1457
acted	-12.1458
▁alter	-12.146
cycle	-12.1461
▁eyes	-12.1471
▁rock	-12.1479
▁column	-12.1479
wage	-12.1484
8.3	-12.1487
dozen	-12.1488
western	-12.149
▁insists	-12.1495
▁host	-12.1496
▁ounces	-12.1496
▁relief	-12.1498
▁petroleum	-12.1501
gun	-12.1503
▁precise	-12.1503
▁bushel	-12.1504
▁picked	-12.1505
arbide	-12.1506
▁taste	-12.1506
▁Pre	-12.1513
▁Super	-12.1522
▁Ha	-12.1524
▁marketplace	-12.1528
▁fleet	-12.1532
▁Thatcher	-12.1534
▁admitted	-12.1535
burn	-12.1539
cap	-12.154
7.7	-12.1547
▁posts	-12.1553
barrel	-12.1553
ranks	-12.1554
▁delivered	-12.1555
▁Ta	-12.1556
▁penalty	-12.1559
▁thin	-12.1559
spending	-12.156
▁polls	-12.156
▁helicopter	-12.1563
▁Money	-12.1564
▁wild	-12.1564
▁Catholic	-12.1565
0.1	-12.1566
7.4	-12.1568
handled	-12.1568
5.9	-12.1572
comfortable	-12.1574
▁Metropolitan	-12.1583
▁unsuccessful	-12.1583
▁Andrew	-12.1584
6.2	-12.1584
▁appointment	-12.1592
▁Through	-12.1593
▁Seattle	-12.1593
▁reward	-12.1595
▁Jacobs	-12.1599
▁arbitrager	-12.1605
▁LTV	-12.1607
▁Similar	-12.1614
▁violate	-12.1615
Trust	-12.1616
94	-12.1619
▁chains	-12.1621
▁honor	-12.1623
lived	-12.1628
electronics	-12.1632
▁finds	-12.1634
1.6	-12.1639
▁Mining	-12.1642
▁flood	-12.1643
▁FBI	-12.1644
▁interesting	-12.1645
▁exclud	-12.1647
▁flexibility	-12.1654
▁immune	-12.1654
▁1976	-12.1655
▁premiums	-12.1655
▁adjust	-12.166
safety	-12.1667
▁Seven	-12.167
▁Code	-12.1676
▁absorb	-12.1677
▁asbestos	-12.1684
▁writing	-12.1688
Iraq	-12.1692
▁tougher	-12.1698
aided	-12.1698
▁stick	-12.1701
far	-12.1707
▁mines	-12.1716
▁emphasize	-12.172
rating	-12.1721
ett	-12.1722
▁Gephardt	-12.1725
▁WSJ	-12.1725
stakes	-12.1728
▁tradition	-12.1729
▁tariff	-12.1729
▁guerrilla	-12.1735
▁Connecticut	-12.1735
▁Foundation	-12.1735
inflation	-12.1736
▁competitor	-12.1737
bright	-12.1746
▁EDS	-12.1751
operation	-12.1755
▁seat	-12.1755
mission	-12.1763
▁Benedetti	-12.1766
last	-12.1769
▁carefully	-12.1774
▁efficient	-12.1776
▁intellectual	-12.1777
utter	-12.178
▁understanding	-12.1781
▁Major	-12.1782
▁Singer	-12.1783
▁Shamrock	-12.1786
▁League	-12.1786
▁guaranteed	-12.18
▁senators	-12.1802
guess	-12.1804
▁Lebanon	-12.1807
▁Montgomery	-12.1807
▁university	-12.1807
pieces	-12.1808
▁bases	-12.181
ied	-12.1815
faith	-12.1816
▁ordinary	-12.1817
EST	-12.1818
reviewing	-12.1821
▁Leon	-12.1821
▁testifie	-12.1825
▁Bas	-12.1826
▁ignor	-12.1826
▁RepublicBank	-12.1827
▁color	-12.183
rad	-12.183
▁replac	-12.183
▁promot	-12.1836
▁sitting	-12.1836
▁household	-12.1837
▁province	-12.1837
▁superior	-12.1837
▁1977	-12.1838
▁unveil	-12.1842
▁borrow	-12.1846
▁Afghanistan	-12.1848
▁Cohen	-12.1848
▁Limited	-12.1849
0.8	-12.1855
▁keeps	-12.1855
48	-12.1858
▁Kaiser	-12.1858
▁140	-12.1859
▁Be	-12.1868
▁museum	-12.1868
▁jointly	-12.1873
33	-12.1874
ward	-12.1879
urs	-12.188
▁hint	-12.1882
▁charg	-12.1882
▁ran	-12.1884
1.1	-12.1891
▁Per	-12.1897
▁biotechnology	-12.1899
▁immigrant	-12.1899
easing	-12.19
▁combat	-12.1901
▁investigate	-12.1905
▁driving	-12.1906
▁participat	-12.1909
compliance	-12.191
▁slowing	-12.192
▁apartment	-12.1924
▁Bo	-12.1926
▁preference	-12.1931
▁forest	-12.1933
▁Banks	-12.1935
▁130	-12.194
▁demonstration	-12.1943
▁rocket	-12.1944
▁Environmental	-12.1949
▁Airbus	-12.195
▁Wisconsin	-12.1951
▁assumption	-12.1951
▁boss	-12.1952
regulat	-12.1959
▁stepped	-12.1962
closing	-12.1967
▁Roberts	-12.1968
▁Whe	-12.1973
▁cigarette	-12.1976
▁facts	-12.1979
forcing	-12.198
▁Stone	-12.198
▁borrowed	-12.1984
6.1	-12.1986
▁anyway	-12.1991
▁defensive	-12.1993
Lambert	-12.1994
lately	-12.1996
bar	-12.1998
▁cite	-12.2002
IN	-12.2003
▁lesson	-12.2005
▁Gray	-12.2006
▁inevitabl	-12.2006
informed	-12.2006
▁science	-12.2012
speak	-12.2014
▁dance	-12.2015
monopol	-12.2018
▁emphasi	-12.202
▁abandoned	-12.2023
sweeping	-12.203
OPEC	-12.2031
people	-12.2033
▁arguments	-12.2033
core	-12.2035
▁12-	-12.2037
7.6	-12.205
my	-12.2052
▁arrive	-12.2053
▁pays	-12.2055
▁degree	-12.2055
pollution	-12.2056
▁baseball	-12.2056
▁greatest	-12.2058
▁preserve	-12.2058
▁senator	-12.2063
▁63	-12.2067
▁background	-12.2067
▁USA	-12.2068
▁Commercial	-12.2073
sleep	-12.2077
▁declare	-12.2083
▁Second	-12.2087
yard	-12.2088
▁recovered	-12.2095
America	-12.2096
▁philosoph	-12.2097
▁handl	-12.2098
▁Where	-12.2101
advised	-12.2102
▁Tenn	-12.2105
dependent	-12.2106
▁Holmes	-12.2109
dated	-12.2111
▁enforcement	-12.2116
king	-12.2118
▁type	-12.2118
▁accurate	-12.2119
▁diplomatic	-12.2122
mall	-12.2123
▁badly	-12.2123
▁roll	-12.2132
▁Ben	-12.2134
▁timing	-12.2136
▁Pakistan	-12.2147
▁permission	-12.2151
▁designer	-12.2152
6.9	-12.2156
▁Lo	-12.2158
breaking	-12.2159
democratic	-12.2161
▁medicine	-12.2162
▁pictures	-12.2167
18	-12.2168
ster	-12.217
▁freeze	-12.218
Eddie	-12.2194
Japanese	-12.2194
arm	-12.2196
▁conviction	-12.2198
lot	-12.2203
▁tremendous	-12.2204
▁ITT	-12.2205
▁occasional	-12.2206
▁Toshiba	-12.2211
▁brothers	-12.2213
▁category	-12.2215
▁stuff	-12.222
Bank	-12.2223
ped	-12.2225
▁assess	-12.2225
▁Kravis	-12.2226
Shell	-12.2231
▁covers	-12.2232
▁implement	-12.2236
▁objection	-12.2236
▁terminal	-12.2237
Belgian	-12.2238
▁pursu	-12.2242
▁Wells	-12.2243
▁murder	-12.2245
▁controller	-12.225
▁skeptical	-12.2251
boat	-12.2253
▁Kuwait	-12.2256
▁harvest	-12.226
▁broadcasting	-12.2261
buying	-12.2264
bargaining	-12.2265
▁financier	-12.2269
Cal	-12.227
▁clothing	-12.2271
▁Car	-12.2273
▁holiday	-12.2276
Go	-12.2277
▁computerized	-12.228
▁probe	-12.2282
▁salarie	-12.2286
ble	-12.2289
▁publishe	-12.2289
▁Beijing	-12.229
▁eliminated	-12.2301
▁dropping	-12.2301
budget	-12.2304
1.50	-12.2305
nuclear	-12.2307
▁Lockheed	-12.2312
▁gather	-12.2312
▁conspiracy	-12.2312
▁canceled	-12.2315
8.9	-12.2315
load	-12.2316
▁Jose	-12.2316
▁Li	-12.2318
GE	-12.2318
reform	-12.2321
7.9	-12.2323
▁repay	-12.2325
ini	-12.2325
public	-12.2327
▁brings	-12.2328
▁Ontario	-12.2333
▁Information	-12.2333
▁automobile	-12.2334
tu	-12.2337
▁mistake	-12.2338
▁Art	-12.234
rush	-12.2344
average	-12.2351
▁wine	-12.2353
▁Amendment	-12.2355
▁Getty	-12.2355
▁bearish	-12.2355
▁indict	-12.2362
rick	-12.2363
▁prepare	-12.2364
ada	-12.2365
▁dinner	-12.2366
▁legislator	-12.2366
▁Dayton	-12.2367
▁Baltimore	-12.2369
▁Stevens	-12.237
▁resolved	-12.2381
6.3	-12.2383
▁substance	-12.2388
Port	-12.2389
▁laid	-12.2392
▁replacement	-12.2402
▁petition	-12.2402
▁Uni	-12.2403
▁Rather	-12.241
Mar	-12.2416
▁Philippine	-12.2417
▁Colorado	-12.242
▁consolidation	-12.2421
▁academic	-12.2422
▁Paper	-12.2422
▁pointed	-12.2424
▁truth	-12.2426
▁hundred	-12.2428
▁Education	-12.2429
▁Nippon	-12.2431
▁urban	-12.2431
gra	-12.2438
▁100-	-12.2442
▁crew	-12.2448
▁commissioner	-12.2448
teen	-12.2449
80	-12.2451
protection	-12.2453
▁Anthon	-12.2453
ga	-12.2454
tries	-12.2458
▁repurchase	-12.246
capacity	-12.2462
▁Unisys	-12.2464
▁explanation	-12.2464
se	-12.2467
▁Me	-12.2467
▁nice	-12.2467
path	-12.2477
9,000	-12.2483
▁skills	-12.2485
▁momentum	-12.2486
85	-12.2499
91	-12.2506
▁creation	-12.2508
▁platform	-12.2508
▁Electronics	-12.251
▁zero	-12.251
▁Volkswagen	-12.2514
new	-12.2517
▁mayor	-12.2518
▁terrorist	-12.2519
▁independence	-12.2521
▁debts	-12.2523
ological	-12.2526
AT	-12.2528
▁publicity	-12.2529
▁copies	-12.2531
copy	-12.2533
pot	-12.2537
launch	-12.2543
▁apart	-12.2545
placement	-12.2548
▁Bentsen	-12.2548
▁dark	-12.2552
call	-12.2553
ert	-12.2556
▁Ward	-12.2559
▁protected	-12.256
saving	-12.256
spin	-12.2561
rises	-12.2563
▁unsecured	-12.2563
▁Milken	-12.2563
▁Water	-12.2571
8.7	-12.2572
▁readers	-12.2574
rise	-12.2574
▁Mary	-12.2577
▁rail	-12.2587
▁110	-12.2588
▁Maine	-12.2591
▁Albert	-12.2591
▁restrain	-12.2591
come	-12.2592
po	-12.2593
▁daughter	-12.2595
▁chicken	-12.2596
▁prospective	-12.2597
▁methods	-12.2599
7.3	-12.2601
▁Corporate	-12.2607
eth	-12.2612
▁manner	-12.2616
satisfied	-12.2619
▁disappointing	-12.262
▁fortune	-12.262
▁detect	-12.2624
▁Noriega	-12.2626
sites	-12.263
▁Ci	-12.2637
▁multi	-12.2638
▁Mitsubishi	-12.2641
▁God	-12.2641
▁depositor	-12.2642
▁Lines	-12.265
▁transmission	-12.2652
9.8	-12.2654
root	-12.2655
▁classe	-12.2656
28	-12.2659
fighting	-12.266
▁Diamond	-12.2663
▁obstacle	-12.2663
▁Warren	-12.2663
collar	-12.2674
▁listing	-12.2677
▁commercials	-12.2677
comp	-12.2679
▁floating	-12.2682
foods	-12.2685
au	-12.2685
▁Revlon	-12.2686
▁300,000	-12.2686
ana	-12.2686
▁planner	-12.269
▁gulf	-12.2695
steel	-12.2695
▁successfully	-12.2697
storm	-12.2697
▁Total	-12.2698
▁veteran	-12.27
7.1	-12.2704
▁Resort	-12.2708
▁park	-12.2709
▁Casey	-12.271
added	-12.271
0.9	-12.2713
▁grounds	-12.2716
▁maturity	-12.2717
cash	-12.2718
▁capabilit	-12.2719
▁Phoenix	-12.2719
▁downturn	-12.272
favored	-12.2722
▁Equipment	-12.273
bed	-12.2735
vil	-12.2741
gaining	-12.2741
▁cutback	-12.2749
ell	-12.2751
▁Companie	-12.2753
Rudman	-12.2753
bag	-12.2755
ott	-12.2757
stability	-12.2761
▁69	-12.2762
storage	-12.2764
▁Maybe	-12.2765
volume	-12.2766
conduct	-12.2768
lie	-12.2768
▁useful	-12.2768
▁furniture	-12.2772
lab	-12.2775
▁Previous	-12.2776
▁troubles	-12.2778
▁comply	-12.2784
▁coup	-12.2786
▁Tire	-12.2789
▁clearance	-12.2792
▁Quayle	-12.2793
▁agriculture	-12.2798
▁Marshall	-12.2798
▁Harry	-12.2799
▁accomplish	-12.2807
▁tools	-12.2809
▁Part	-12.2809
▁Alexander	-12.2811
▁overwhelming	-12.2815
fold	-12.2817
▁sub	-12.2824
fueled	-12.2828
▁focusing	-12.2831
tightening	-12.2832
▁Monetary	-12.2832
▁Donaldson	-12.2833
▁Swedish	-12.2834
▁crack	-12.2838
▁Parliament	-12.2844
▁north	-12.2857
▁enhance	-12.286
early	-12.2862
▁steadi	-12.2864
▁tape	-12.287
▁Rate	-12.2873
▁content	-12.2875
▁parliament	-12.2875
▁animals	-12.2882
▁stability	-12.2882
▁GTE	-12.2884
9.2	-12.2887
RA	-12.2888
▁selection	-12.2889
▁handful	-12.289
▁solicit	-12.29
▁72	-12.2903
1.3	-12.2905
ka	-12.2909
▁birth	-12.291
▁Bonds	-12.2911
▁Equity	-12.2911
▁broken	-12.2918
ical	-12.2919
▁exporter	-12.2923
Intelligence	-12.2924
▁reference	-12.2924
▁appearance	-12.2926
▁breach	-12.2928
▁Gerald	-12.2928
▁abandon	-12.2936
▁Aquino	-12.2947
▁Regan	-12.2949
ways	-12.2954
▁core	-12.2954
iv	-12.2954
regulation	-12.2955
▁administrator	-12.2958
▁dissident	-12.2958
▁101	-12.2959
Corp	-12.296
▁stabilize	-12.296
fined	-12.2967
▁receipt	-12.297
▁streets	-12.2973
nell	-12.2975
hy	-12.2975
▁cast	-12.2978
▁Chris	-12.2978
▁catalog	-12.2981
▁Sullivan	-12.2981
▁predecessor	-12.2981
▁mandate	-12.2983
stage	-12.2985
count	-12.2987
▁excellent	-12.2993
ani	-12.3
▁Manufacturing	-12.3004
▁excessive	-12.3004
cor	-12.3005
▁steelmaker	-12.3008
▁guarantees	-12.3014
▁shape	-12.3018
guard	-12.3018
▁writer	-12.3022
ol	-12.3024
▁Ariz	-12.3027
▁striking	-12.3027
tion	-12.3036
utility	-12.3037
qualified	-12.3048
threatening	-12.3049
▁Las	-12.3051
▁inspection	-12.3052
▁sport	-12.3052
▁acknowledg	-12.3055
item	-12.3056
eligible	-12.3062
▁Brussels	-12.3062
▁delegates	-12.3063
helps	-12.3068
▁Freeman	-12.3069
▁interim	-12.3074
▁Eurodollar	-12.3074
▁Lt	-12.3078
▁ceiling	-12.3085
▁Tehran	-12.3086
▁sustained	-12.3088
▁praise	-12.3089
▁correction	-12.3096
▁plummet	-12.3097
▁Clark	-12.3097
wer	-12.3103
trial	-12.3108
▁setback	-12.3109
▁Kraft	-12.3109
▁laser	-12.3109
fully	-12.311
▁techniques	-12.3114
▁pilot	-12.3119
fl	-12.3121
Domini	-12.3126
Q	-12.3129
▁financially	-12.3133
▁checks	-12.3138
7.2	-12.3139
temperature	-12.3156
▁generic	-12.3156
▁Germans	-12.3157
coast	-12.3162
ng	-12.3167
▁rebate	-12.3168
dale	-12.3168
▁marginal	-12.3169
▁laboratory	-12.317
▁guys	-12.317
▁Engineer	-12.3179
▁liquidation	-12.3181
▁automatic	-12.3183
▁vacation	-12.3187
60	-12.3187
6.6	-12.3189
ilk	-12.3192
▁Larr	-12.3193
▁Fox	-12.3194
▁AMR	-12.3194
materials	-12.3195
▁injur	-12.3201
▁Laboratories	-12.3203
▁Next	-12.3203
top	-12.3205
49	-12.3205
▁demanding	-12.3206
Pro	-12.3211
▁lucra	-12.3215
serves	-12.3218
su	-12.3219
mond	-12.3223
▁Hu	-12.3225
productive	-12.3227
dumping	-12.3228
builder	-12.3231
▁boards	-12.3233
pitch	-12.3238
definition	-12.3238
▁RATE	-12.3239
profile	-12.3241
▁fighter	-12.3241
▁vital	-12.3251
ery	-12.3255
▁contribution	-12.326
rine	-12.326
assurance	-12.3261
band	-12.3262
▁credibility	-12.3262
▁Media	-12.3265
will	-12.3266
▁solve	-12.3266
▁Mellon	-12.3268
writing	-12.327
▁communit	-12.3272
▁Egypt	-12.3273
▁Chevron	-12.3274
▁71	-12.3278
date	-12.3281
pain	-12.3283
▁interpret	-12.3287
8.6	-12.3292
allie	-12.3294
hipped	-12.3298
entech	-12.3301
▁illustrate	-12.3305
▁Netherlands	-12.331
▁hardware	-12.331
▁desk	-12.3314
▁exemption	-12.3315
▁challeng	-12.3316
▁cooperate	-12.3318
▁Iraqi	-12.332
licensing	-12.3322
▁Utilities	-12.3322
▁stall	-12.3322
▁Anderson	-12.3322
▁alleg	-12.3328
ore	-12.3329
diluted	-12.3331
through	-12.3335
force	-12.3336
▁stress	-12.3351
▁Church	-12.3357
evaluate	-12.3366
▁Jerry	-12.337
toxic	-12.3371
▁surrounding	-12.3378
▁emotional	-12.3381
seller	-12.3383
▁500-	-12.3385
Med	-12.3389
▁rooms	-12.3392
▁confusion	-12.3394
▁ethics	-12.3394
▁Chile	-12.3399
▁insolvent	-12.3404
▁super	-12.3405
▁territory	-12.3406
refining	-12.3406
▁Islam	-12.3406
▁passing	-12.3407
▁Five	-12.3407
drift	-12.3409
stake	-12.3409
▁subscribers	-12.3413
▁promising	-12.3415
▁shelf	-12.3422
1.7	-12.3424
▁Afghan	-12.3431
▁attribute	-12.3433
▁equities	-12.3434
▁asserts	-12.3436
responsibilities	-12.3436
fired	-12.3443
▁encounter	-12.3444
▁62.5	-12.345
gate	-12.345
heating	-12.345
zone	-12.3453
▁stance	-12.3456
proof	-12.3457
▁Profit	-12.3458
▁wider	-12.3469
67	-12.3469
▁stated	-12.347
▁steam	-12.347
▁Milan	-12.3472
▁Grey	-12.3472
chief	-12.3477
▁Jordan	-12.3478
900	-12.3479
▁wire	-12.3489
▁Grant	-12.3498
▁Natural	-12.3502
6.4	-12.3503
▁regularly	-12.3511
▁Baa	-12.3514
▁voluntary	-12.3515
restraint	-12.3517
▁raw	-12.352
transport	-12.3526
▁rent	-12.3528
▁Nix	-12.3528
▁Ko	-12.3532
October	-12.3533
▁cellular	-12.3539
abortion	-12.3542
▁refugee	-12.3547
system	-12.3551
▁specify	-12.3551
▁Interest	-12.3552
▁Southland	-12.3556
▁teams	-12.3556
10,000	-12.3556
em	-12.3556
▁famous	-12.3557
▁raid	-12.3558
▁south	-12.356
▁Northeast	-12.3562
▁Patrick	-12.3563
▁prediction	-12.3567
2000	-12.3571
ink	-12.3573
▁upper	-12.3577
performing	-12.3582
▁outlays	-12.3587
▁advise	-12.3587
▁Wickes	-12.3588
▁educational	-12.3589
▁Distiller	-12.359
▁highway	-12.3596
▁NASD	-12.36
▁stimulate	-12.36
▁Parker	-12.3604
▁calm	-12.3606
▁sample	-12.3612
▁observe	-12.3613
▁250,000	-12.3615
▁mature	-12.3615
▁Advanc	-12.3621
▁staffer	-12.3622
export	-12.3622
bo	-12.3623
▁1950	-12.3625
9.6	-12.3628
▁Ky	-12.3632
▁Bonn	-12.3636
▁Bennett	-12.3637
ranged	-12.3638
▁bailout	-12.3638
▁registered	-12.3638
▁secure	-12.3639
ory	-12.3641
▁busy	-12.3642
▁Cuban	-12.3642
▁advisory	-12.3643
tends	-12.3643
biggest	-12.3643
▁native	-12.3644
sell	-12.3645
▁issuer	-12.3651
▁creative	-12.3662
▁downward	-12.3663
girl	-12.3666
tele	-12.3667
▁pure	-12.3667
▁Proceed	-12.3674
▁Jeffrey	-12.3674
▁households	-12.3683
▁valuable	-12.3683
▁directed	-12.3684
processor	-12.3686
▁Steinberg	-12.3687
▁Congressional	-12.3687
▁1997	-12.3691
▁1973	-12.3692
Mosle	-12.3692
▁slid	-12.3695
recognition	-12.3699
▁Westinghouse	-12.3699
▁revision	-12.3699
horse	-12.37
located	-12.37
bit	-12.3702
value	-12.3703
▁Luf	-12.3704
▁consequences	-12.3705
ose	-12.3709
▁tire	-12.371
▁mood	-12.3711
▁adjustable	-12.3713
male	-12.3716
▁Best	-12.3716
▁explore	-12.3719
prescription	-12.3724
▁Imperial	-12.3724
await	-12.3728
▁Goodyear	-12.3734
▁talked	-12.3736
▁Herald	-12.3736
bet	-12.3741
lire	-12.3744
▁payout	-12.3744
hang	-12.3757
Signal	-12.3761
▁Instrument	-12.3761
▁spirit	-12.3763
▁Silver	-12.3767
flow	-12.3768
▁inspector	-12.3774
▁resort	-12.3777
▁components	-12.3777
▁skeptic	-12.3782
▁differ	-12.3786
▁reopen	-12.3787
▁mix	-12.3787
▁leads	-12.3797
▁Manila	-12.3798
▁teachers	-12.3799
▁cultural	-12.3806
only	-12.3807
▁450	-12.3808
▁spur	-12.3811
▁sympath	-12.3812
▁Barry	-12.3812
met	-12.3819
▁fun	-12.382
▁civilian	-12.382
▁Irish	-12.3824
▁married	-12.3824
▁conceded	-12.3829
▁Roy	-12.3833
▁Hans	-12.3837
▁offshore	-12.3837
▁code	-12.3837
▁Line	-12.3839
2.50	-12.3841
▁bottle	-12.3842
suffering	-12.3847
▁misleading	-12.3851
Philips	-12.3852
▁restricted	-12.3853
▁trim	-12.3854
▁meat	-12.3858
▁Poindexter	-12.3861
▁Well	-12.3872
cu	-12.3875
curred	-12.3876
Free	-12.3879
▁fault	-12.3884
▁spurr	-12.3886
fought	-12.3887
acts	-12.3889
morning	-12.389
▁complicat	-12.3892
1,500	-12.3897
▁perception	-12.3899
▁Levine	-12.39
distribution	-12.3904
▁downtown	-12.3906
▁82	-12.3907
▁Year	-12.3911
▁legislature	-12.3912
▁Lucky	-12.3912
bearing	-12.3916
▁introduction	-12.3919
poor	-12.3921
pham	-12.3925
▁Internal	-12.3925
▁priority	-12.3926
▁barely	-12.3927
▁Ren	-12.3932
▁vs	-12.3932
second	-12.3943
lun	-12.3947
63	-12.3949
poverty	-12.395
denominated	-12.395
▁football	-12.395
▁considerabl	-12.3956
▁Kan	-12.3961
▁Rothschild	-12.3963
▁Zurich	-12.3963
▁definite	-12.3963
▁Authority	-12.3964
▁speculative	-12.3965
script	-12.3971
▁faced	-12.3975
▁Dynamics	-12.3975
▁unprecedented	-12.3975
▁Orleans	-12.3975
▁Rockwell	-12.3976
▁proportion	-12.3978
▁Pictures	-12.3979
data	-12.3986
44	-12.3986
evident	-12.3988
▁diversified	-12.399
▁submit	-12.3994
gone	-12.3995
▁counterpart	-12.3997
outs	-12.3999
MGM	-12.4001
wife	-12.4001
▁Sugar	-12.4002
▁Jesse	-12.4004
▁deductions	-12.4007
▁departments	-12.4012
iness	-12.4013
▁stem	-12.4015
fan	-12.402
ix	-12.402
40,000	-12.4022
fix	-12.4026
▁Regulator	-12.4026
generous	-12.4026
▁restor	-12.4038
▁transition	-12.4039
aging	-12.4039
▁legitimate	-12.4039
▁Television	-12.4039
▁turm	-12.404
▁Bern	-12.4045
ight	-12.4048
Back	-12.4058
▁1975	-12.4064
▁youth	-12.4066
▁remainder	-12.4067
▁Norman	-12.4068
▁finish	-12.4073
▁manufacture	-12.4074
▁assigned	-12.4076
▁Aviation	-12.4078
June	-12.4078
▁Glass	-12.4079
▁upset	-12.408
let	-12.4083
ages	-12.4084
▁rescue	-12.4087
▁supervisor	-12.4087
chair	-12.409
Russell	-12.4091
▁Hilton	-12.4091
living	-12.4091
▁1993	-12.4099
60,000	-12.41
moving	-12.4101
table	-12.4101
mus	-12.4103
▁Mitchell	-12.4104
▁Polaroid	-12.4104
▁Week	-12.4104
▁drilling	-12.411
▁feed	-12.4116
▁smooth	-12.4117
36	-12.4119
▁collateral	-12.4123
▁Old	-12.4125
▁mechanism	-12.413
▁Austin	-12.413
▁coordinat	-12.4135
▁1974	-12.4142
▁Oliver	-12.4143
▁Senator	-12.4143
▁interpretation	-12.4144
▁Hispanic	-12.4148
Ol	-12.4151
▁classic	-12.4154
▁Walker	-12.4156
▁impression	-12.4159
mouth	-12.4168
▁sizable	-12.4168
▁Caesar	-12.4169
▁Franklin	-12.4169
▁trail	-12.417
▁Ca	-12.4177
▁artificial	-12.4181
ze	-12.4182
▁Ed	-12.4188
Olympic	-12.4189
▁mental	-12.4192
▁treasurer	-12.4193
tting	-12.4194
▁Sandinistas	-12.4196
folk	-12.4206
game	-12.4206
▁lure	-12.4207
▁Follow	-12.4208
▁160	-12.4212
form	-12.4213
▁Nova	-12.4214
tin	-12.4215
▁repeal	-12.4221
▁empire	-12.4221
▁67	-12.4226
:	-12.4227
▁assessment	-12.423
▁Deutsche	-12.4233
▁hedge	-12.4234
▁Hartford	-12.4234
▁Safety	-12.4234
dis	-12.4235
▁printing	-12.4237
▁remind	-12.4238
za	-12.4242
▁artists	-12.4243
▁shock	-12.4245
vel	-12.4247
▁Harold	-12.4247
▁750	-12.4258
ES	-12.4263
treatment	-12.4267
housing	-12.4274
belt	-12.4281
▁Olympics	-12.4292
bow	-12.4294
▁Evans	-12.4294
▁denie	-12.4296
▁oust	-12.4299
▁climate	-12.4299
▁Turkey	-12.4299
▁Later	-12.4301
▁partial	-12.4303
▁female	-12.4304
che	-12.4306
▁Adm	-12.4308
▁Murray	-12.4308
▁Robinson	-12.4308
▁witness	-12.4311
cott	-12.4312
▁guest	-12.4315
▁Fanni	-12.4319
pit	-12.4319
▁optimis	-12.4319
▁20-	-12.4324
▁Tim	-12.4324
▁Murphy	-12.4326
generating	-12.4326
▁drove	-12.4327
rank	-12.433
ps	-12.433
▁68	-12.433
▁referr	-12.4332
concert	-12.4333
hold	-12.4335
gear	-12.4336
▁injuries	-12.4338
▁Mutual	-12.4339
▁exploit	-12.4339
▁Xerox	-12.4339
24	-12.4339
judge	-12.4346
kron	-12.4349
▁occasion	-12.4349
▁sounds	-12.4351
▁strange	-12.4353
▁frozen	-12.4353
▁Golden	-12.4356
▁Nabisco	-12.4356
▁Wolf	-12.4359
min	-12.436
rel	-12.4365
pped	-12.4365
▁Space	-12.4367
41	-12.4367
most	-12.437
16	-12.437
▁225	-12.4378
▁unclear	-12.4379
▁relax	-12.4379
appreciation	-12.4381
ski	-12.4381
rat	-12.4382
missed	-12.4383
ily	-12.4383
▁circle	-12.4386
woman	-12.439
assuming	-12.4392
▁unique	-12.4392
▁establishment	-12.4393
▁passage	-12.4394
string	-12.4395
▁collapsed	-12.4399
channel	-12.4401
▁appliance	-12.4402
Shield	-12.4405
▁prize	-12.4405
▁prosecution	-12.4405
▁Belgi	-12.4416
▁circulation	-12.4417
offensive	-12.4418
tial	-12.4419
lip	-12.442
▁leverage	-12.442
▁cotton	-12.4421
38	-12.4422
▁tru	-12.4423
▁lunch	-12.4427
animal	-12.4427
▁TPA	-12.4429
ambitious	-12.4432
▁divert	-12.4432
▁workstation	-12.4433
▁cumulative	-12.4433
▁Brady	-12.4435
▁unsolici	-12.4439
payments	-12.4441
Chi	-12.4443
▁village	-12.4445
▁Bilzerian	-12.4445
▁Speaker	-12.4446
grocery	-12.4446
Japan	-12.4447
aircraft	-12.4451
kind	-12.4462
▁Cine	-12.4463
pending	-12.4463
▁Ways	-12.4473
stream	-12.4473
Tech	-12.4477
▁assist	-12.4478
▁informal	-12.4485
ci	-12.4488
2,500	-12.4498
▁JWT	-12.4499
ourselves	-12.45
liquid	-12.4501
September	-12.4501
▁strongest	-12.4503
▁portray	-12.4512
▁Given	-12.4513
cup	-12.4519
▁registration	-12.453
sustain	-12.4535
▁skin	-12.4546
Video	-12.4553
▁vacanc	-12.4553
Socialist	-12.4554
▁objective	-12.4555
dividend	-12.4555
▁multiple	-12.4557
▁mills	-12.4559
mer	-12.4561
▁airplane	-12.4566
▁constitute	-12.4567
scene	-12.457
▁protectionist	-12.457
tag	-12.4573
bloc	-12.4574
▁Museum	-12.458
▁Edwin	-12.458
▁Harcourt	-12.458
lists	-12.4582
west	-12.4588
▁Jewish	-12.4589
August	-12.459
injury	-12.4592
submarine	-12.4593
▁hero	-12.4593
▁viewers	-12.4602
▁qualify	-12.4607
▁discourage	-12.4608
tree	-12.4616
▁Realty	-12.462
▁broaden	-12.4621
▁loser	-12.4622
▁Heritage	-12.4634
▁Marketing	-12.4639
flu	-12.4641
▁disagree	-12.4647
▁Sydney	-12.4648
▁sw	-12.4649
▁edged	-12.465
▁indirect	-12.4652
▁1972	-12.4652
▁shared	-12.4655
offs	-12.4656
▁atmosphere	-12.4661
▁wind	-12.4662
▁ballot	-12.4662
apartheid	-12.4663
▁Within	-12.467
9.4	-12.4674
▁Commodities	-12.4675
▁failures	-12.4678
▁outlets	-12.468
-7	-12.4686
AW	-12.4687
racial	-12.4689
Newport	-12.4693
▁attendant	-12.4693
▁judicial	-12.4694
▁Point	-12.4699
▁Pra	-12.4699
owner	-12.4701
▁surgery	-12.4708
arms	-12.4716
Lorimar	-12.4716
cholesterol	-12.4716
▁Oppenheimer	-12.4716
▁Southeast	-12.4716
May	-12.4719
▁clinical	-12.4723
alcohol	-12.4727
▁grants	-12.4728
see	-12.4728
▁explosion	-12.473
▁presidents	-12.4731
▁pressing	-12.4732
handed	-12.4733
▁stressed	-12.4734
▁window	-12.4738
vaccine	-12.4743
▁Ralph	-12.4743
▁Wayne	-12.4744
▁Brian	-12.4744
▁acceptance	-12.4745
▁enforce	-12.4754
▁hostages	-12.4756
▁Director	-12.4756
pum	-12.4756
▁specialize	-12.4759
▁crops	-12.476
▁discipline	-12.4762
▁diminish	-12.4763
▁fruit	-12.4767
▁Men	-12.4768
▁violat	-12.477
▁Roh	-12.4775
opera	-12.4777
▁smoke	-12.4777
▁Penn	-12.4782
▁compact	-12.4791
▁blocked	-12.4799
▁measured	-12.4799
▁emerging	-12.48
▁punish	-12.4803
CA	-12.4806
agency	-12.4809
printer	-12.4811
▁Coniston	-12.4813
▁suspension	-12.4813
▁intra	-12.4818
▁Costa	-12.4821
▁attach	-12.4829
actors	-12.4831
season	-12.4831
Benz	-12.4835
▁Colo	-12.4836
▁missing	-12.4838
luster	-12.484
▁Mikhail	-12.484
▁arrange	-12.4841
▁Economics	-12.4844
rod	-12.4845
▁Adams	-12.4849
▁strain	-12.4854
▁Klein	-12.4854
▁Richmond	-12.4854
horn	-12.4855
pressed	-12.4856
▁artist	-12.4857
▁Euro	-12.4858
▁substitute	-12.486
1.75	-12.4861
les	-12.4864
olf	-12.4875
▁AB	-12.4876
managed	-12.4878
site	-12.4882
▁punitive	-12.4882
Victor	-12.4883
▁sick	-12.4886
cargo	-12.4887
17	-12.4889
▁Mountain	-12.4891
▁Coke	-12.4895
▁odds	-12.4896
▁attempted	-12.4901
▁Grace	-12.4903
ground	-12.491
capitalization	-12.4911
▁Economist	-12.4912
ture	-12.4916
Sandinista	-12.4922
▁confront	-12.4923
▁iron	-12.4924
▁Gate	-12.4925
▁SDI	-12.4925
▁Tower	-12.4927
▁entitle	-12.4928
ck	-12.4929
▁Small	-12.493
▁satisfy	-12.4933
miss	-12.4936
j	-12.4937
▁Commonwealth	-12.4938
fax	-12.494
assured	-12.4941
▁prevail	-12.4945
dominant	-12.4952
▁mandatory	-12.4952
▁verdict	-12.4952
▁adverse	-12.4952
earning	-12.4953
▁Real	-12.4954
lender	-12.4956
woo	-12.4962
▁Seabrook	-12.4966
Packard	-12.4966
▁Alberta	-12.4966
▁justify	-12.4967
▁impress	-12.497
ti	-12.497
condition	-12.4971
enneco	-12.4976
ging	-12.4976
▁Opera	-12.498
▁Daimler	-12.498
▁25,000	-12.4987
metals	-12.4987
▁marriage	-12.4989
▁likes	-12.499
▁Thomson	-12.499
▁Via	-12.499
The	-12.4993
▁immigration	-12.4994
hound	-12.4995
referred	-12.4997
▁knowing	-12.5
photograph	-12.5004
▁Siemens	-12.5008
▁latter	-12.5008
▁marketer	-12.5014
mine	-12.5017
▁Fuji	-12.5023
Atlantic	-12.5032
▁billing	-12.5033
wound	-12.5035
55	-12.5036
▁constitut	-12.5036
conglomerate	-12.5037
▁enthusiasm	-12.5037
▁platinum	-12.5037
dyne	-12.5037
▁Channel	-12.5038
ult	-12.504
favorable	-12.5042
motor	-12.5047
▁cloud	-12.5048
▁syndicate	-12.5051
▁valid	-12.5051
▁drivers	-12.5052
▁anticipation	-12.5052
roads	-12.5055
▁highs	-12.5062
▁Ore	-12.5077
▁banned	-12.5079
▁assault	-12.5079
▁Maryland	-12.508
acre	-12.5085
▁Wedtech	-12.5094
▁HUD	-12.5094
regulatory	-12.5097
▁celebrat	-12.5098
▁dump	-12.5102
picking	-12.5104
▁Certain	-12.5108
▁Acquisition	-12.5108
▁Siegel	-12.5108
dominat	-12.5109
track	-12.5109
purpose	-12.511
sense	-12.511
wan	-12.5111
emi	-12.5118
▁restate	-12.512
aviation	-12.5122
▁deserve	-12.5125
ip	-12.5128
good	-12.5128
CE	-12.5132
du	-12.5132
0	-12.5136
ticket	-12.5136
▁Raymond	-12.5137
▁accumulat	-12.5139
Up	-12.5145
▁stars	-12.5147
fiber	-12.515
corruption	-12.5151
ative	-12.5153
via	-12.5154
sexual	-12.5158
▁fails	-12.5165
▁warehouse	-12.5165
ailing	-12.5171
mortgage	-12.5174
hard	-12.5175
▁endorse	-12.5183
afternoon	-12.5189
effective	-12.5191
▁ambassador	-12.5194
flexible	-12.5194
▁Treat	-12.5195
▁victim	-12.5197
▁Se	-12.5198
step	-12.5205
ping	-12.5205
pi	-12.5206
tant	-12.5208
▁Princeton	-12.5208
▁paint	-12.5216
weapon	-12.5216
▁Rev	-12.522
▁Wash	-12.5221
supplie	-12.5222
ments	-12.5226
9.1	-12.5227
▁combine	-12.5235
stop	-12.5236
▁Dodge	-12.5238
advertise	-12.524
damaged	-12.5241
▁Ye	-12.5244
fty	-12.5245
▁refer	-12.5257
▁procedure	-12.5259
▁pork	-12.5267
acid	-12.5267
anger	-12.5269
▁15-	-12.5277
▁Indonesia	-12.5281
▁learning	-12.5285
▁provider	-12.5289
▁Sons	-12.529
▁Seagram	-12.5295
▁Shares	-12.5296
▁regain	-12.5302
trials	-12.5303
▁technique	-12.5303
▁Deposit	-12.5304
▁Strategic	-12.531
▁bold	-12.5311
tale	-12.5315
▁subpoena	-12.5324
▁Aerospace	-12.5324
▁decid	-12.5325
▁Antonio	-12.5325
▁plea	-12.5325
▁cartel	-12.5325
minded	-12.5331
ov	-12.5333
▁officially	-12.5337
rid	-12.5337
World	-12.5338
▁outsider	-12.534
UA	-12.5341
▁signing	-12.5344
defined	-12.5345
13	-12.5349
▁Roman	-12.535
8.50	-12.5356
▁postpone	-12.5359
▁packages	-12.5365
▁federally	-12.5366
odd	-12.5366
payment	-12.5368
classified	-12.5368
▁KKR	-12.5368
durable	-12.5368
▁spoke	-12.537
▁Pat	-12.5374
▁Frederick	-12.5383
▁recipient	-12.5383
disposal	-12.5383
appropriation	-12.5384
▁transform	-12.5388
dy	-12.5393
▁fierce	-12.5398
▁Belgium	-12.5398
▁afr	-12.5399
▁sister	-12.5402
▁Holding	-12.5407
▁Columbus	-12.5412
▁episode	-12.5412
▁simultaneous	-12.5412
▁vessel	-12.5412
▁FTC	-12.5413
holders	-12.5414
▁Cross	-12.5421
gathering	-12.5423
▁Dick	-12.5424
▁testify	-12.5425
▁Cambridge	-12.5427
▁opposite	-12.5427
mat	-12.5428
▁plastics	-12.5429
▁Ken	-12.543
▁stiff	-12.5438
▁happening	-12.5441
▁technologies	-12.5442
scientist	-12.5443
ounce	-12.5447
▁jets	-12.5448
friend	-12.545
ru	-12.5451
▁battles	-12.5452
ger	-12.5454
▁imbalance	-12.5457
▁Protection	-12.5457
franc	-12.5464
▁recording	-12.5466
flag	-12.5467
▁Gould	-12.5471
▁exceeding	-12.5474
▁10.3	-12.5474
▁syndrome	-12.5475
▁landing	-12.5478
uke	-12.548
▁Compaq	-12.5486
▁dirt	-12.5487
▁NRC	-12.5487
▁technological	-12.5489
▁insiders	-12.5491
▁Cuba	-12.5497
▁surviv	-12.5501
▁fate	-12.5501
▁400,000	-12.5502
▁county	-12.5502
▁Peat	-12.5502
▁Craz	-12.5506
earth	-12.5512
December	-12.5516
9.7	-12.5517
▁flaw	-12.5518
procurement	-12.5531
▁booming	-12.5539
▁Ma	-12.5539
scope	-12.5543
lated	-12.5544
imp	-12.5545
administer	-12.5546
▁Reed	-12.5551
repayment	-12.5552
▁Olympia	-12.5556
▁anymore	-12.5558
▁WPP	-12.5561
array	-12.5561
▁Pay	-12.5563
ranked	-12.5569
test	-12.5569
▁worsen	-12.5574
▁Citibank	-12.5575
▁applicant	-12.5575
▁Ex	-12.559
▁Kingdom	-12.5591
▁Shopping	-12.5591
56	-12.5592
equipp	-12.5594
▁revive	-12.5595
▁Kelly	-12.5599
▁drives	-12.56
▁Few	-12.5605
April	-12.5611
▁kick	-12.5612
▁Avon	-12.5624
▁careful	-12.5624
▁doors	-12.5624
downs	-12.5626
▁Venezuela	-12.5631
▁explor	-12.5632
▁Affair	-12.5635
▁unanimous	-12.5635
▁Secord	-12.5635
▁Alliance	-12.5636
▁Early	-12.5637
▁angry	-12.5637
▁acquirer	-12.5638
▁Call	-12.5645
▁spill	-12.5648
▁13-	-12.5649
▁Hewlett	-12.5651
▁overcome	-12.5653
AM	-12.5663
▁mainframe	-12.5666
ren	-12.5669
▁Six	-12.5671
▁trip	-12.5676
▁Peru	-12.5677
▁impressive	-12.5681
▁myself	-12.5681
▁exam	-12.5686
▁Chun	-12.5688
neck	-12.569
▁divorce	-12.5692
▁Arco	-12.5692
privilege	-12.5696
▁Reliance	-12.5696
▁assure	-12.5709
▁precedent	-12.5711
▁Cray	-12.5713
Import	-12.5713
▁undermine	-12.5718
▁Top	-12.5719
rice	-12.5719
▁shoes	-12.5721
▁Par	-12.5721
hill	-12.5721
discretion	-12.5726
▁Mississippi	-12.5726
bomb	-12.5728
▁Bayer	-12.5729
▁En	-12.5735
▁Stein	-12.5737
22	-12.5741
concrete	-12.5741
fans	-12.5745
▁Sometime	-12.5751
space	-12.5751
ack	-12.5756
▁Hamilton	-12.5757
▁Take	-12.5762
▁disrupt	-12.5768
voice	-12.577
▁Missouri	-12.5772
▁SmithKline	-12.5772
deductible	-12.5772
▁Taft	-12.5772
▁clothes	-12.5772
-10	-12.5773
lows	-12.5775
▁travelers	-12.5775
children	-12.5776
▁60-	-12.5782
iverse	-12.5786
▁buoy	-12.5787
▁Kentucky	-12.5787
▁expiration	-12.5788
▁bureaucracy	-12.5788
base	-12.5789
▁seized	-12.5793
ownership	-12.5801
▁Institution	-12.5802
▁Telecom	-12.5803
Pittsburgh	-12.5812
distribut	-12.5813
▁parking	-12.5814
▁influen	-12.5817
▁Gla	-12.5824
import	-12.5825
▁15,000	-12.5829
▁scrutin	-12.5831
clearing	-12.5833
▁vendor	-12.5833
▁Dollar	-12.5833
▁Avenue	-12.5834
deferred	-12.5837
Watch	-12.5851
▁Dart	-12.5852
▁reap	-12.5863
2.25	-12.5864
▁Circuit	-12.5864
▁newsprint	-12.5865
▁Hav	-12.5869
▁10.5	-12.5869
rrived	-12.5879
▁cooperative	-12.588
▁warns	-12.588
▁fastest	-12.588
pop	-12.5883
▁sue	-12.5885
▁dismiss	-12.5886
▁filling	-12.5888
▁Barclays	-12.5889
▁Pharmaceutical	-12.5895
▁Berlin	-12.5898
▁Rogers	-12.5903
▁USG	-12.5912
▁competitiveness	-12.5912
▁Jean	-12.5919
▁Mer	-12.5924
▁Foster	-12.5926
▁exercis	-12.5927
▁Telerate	-12.5927
voting	-12.5941
affecting	-12.5941
▁Lear	-12.5948
etti	-12.5948
▁backlog	-12.595
▁reviewed	-12.5952
▁performer	-12.5956
▁cocaine	-12.5957
▁divide	-12.5959
▁squeeze	-12.5963
▁intervene	-12.5963
▁commit	-12.5965
▁Weinberg	-12.5965
capture	-12.5965
▁Teamsters	-12.5966
▁headline	-12.5966
founder	-12.5967
▁unilateral	-12.5972
sterling	-12.5972
firing	-12.5972
hole	-12.5973
deficiency	-12.5974
▁painful	-12.5979
▁Nelson	-12.5988
▁Alfred	-12.5988
refusal	-12.599
Field	-12.5994
▁Guarant	-12.6
▁suburb	-12.6001
stretch	-12.6003
ault	-12.6003
shape	-12.6005
▁2-	-12.6008
▁Leader	-12.601
ho	-12.6014
floor	-12.6017
Myers	-12.6017
▁Rostenkowski	-12.6019
▁Elders	-12.6019
▁Burger	-12.6019
43	-12.6023
▁habit	-12.6031
▁pickup	-12.6038
▁spare	-12.6047
▁identit	-12.6048
▁Brook	-12.6048
▁junior	-12.605
existence	-12.6052
▁Ind	-12.6053
▁imagine	-12.6057
▁Dun	-12.6062
▁arbitration	-12.6066
▁bat	-12.6067
▁turnover	-12.6074
▁functions	-12.6076
shoe	-12.6076
try	-12.6077
▁undervalu	-12.6086
▁Pri	-12.6087
▁Venture	-12.6088
user	-12.6092
▁rhetoric	-12.6092
▁Human	-12.6095
▁Oregon	-12.6097
July	-12.6102
ah	-12.6109
▁Gore	-12.6113
ese	-12.6113
▁Tennessee	-12.6113
▁Oak	-12.6114
▁rejection	-12.6115
nd	-12.6118
▁Fisher	-12.6124
testing	-12.6126
Brit	-12.6129
▁Charter	-12.6129
▁nonprofit	-12.6131
March	-12.6137
▁uniform	-12.6145
▁representation	-12.6154
▁Chevrolet	-12.6161
▁Lawyer	-12.6161
ington	-12.6164
▁transfers	-12.6165
▁Vegas	-12.6166
emphasiz	-12.6166
fil	-12.6169
anti	-12.6171
▁unrest	-12.6174
own	-12.6175
ure	-12.6175
▁compil	-12.6176
▁Employee	-12.6177
▁hourly	-12.6183
approved	-12.6188
▁exclude	-12.6189
▁please	-12.6189
▁Stockholm	-12.6193
▁GenCorp	-12.6193
▁sun	-12.6198
achiev	-12.6199
▁spell	-12.6201
pre	-12.6201
▁minds	-12.6204
▁innocent	-12.6208
▁amended	-12.6209
Palm	-12.6213
visited	-12.6217
manufacturing	-12.6218
▁wearing	-12.6223
securities	-12.6226
socialist	-12.623
IC	-12.6236
▁architect	-12.624
▁boast	-12.624
tor	-12.6246
▁Adds	-12.6249
▁Fields	-12.625
▁quantit	-12.6252
▁Sp	-12.6255
dates	-12.6257
▁instant	-12.6257
▁Overall	-12.6257
▁Former	-12.6258
govern	-12.6258
▁witnesses	-12.6258
ca	-12.6258
bodie	-12.6259
▁miner	-12.626
▁reiterat	-12.626
float	-12.6261
AN	-12.6265
bias	-12.6266
very	-12.6268
tek	-12.6271
▁chamber	-12.6273
show	-12.6274
employment	-12.6274
▁Jay	-12.6274
▁harm	-12.6275
▁assemble	-12.6279
margin	-12.6281
▁Han	-12.6282
▁Already	-12.6288
Scott	-12.6292
▁Minn	-12.6297
corp	-12.63
sixth	-12.6301
trust	-12.6302
8.1	-12.6303
▁cubic	-12.6305
▁drastic	-12.6305
engineered	-12.6305
▁confrontation	-12.6305
▁Roche	-12.6307
▁conflicts	-12.6309
oral	-12.6314
▁Warburg	-12.6321
tel	-12.6323
▁gainer	-12.6323
four	-12.6325
ron	-12.6332
▁tracks	-12.6334
▁automatically	-12.6337
▁leap	-12.6338
▁revise	-12.6342
untries	-12.6346
bird	-12.6348
▁Conference	-12.6353
▁harsh	-12.6353
rica	-12.6355
9.3	-12.6361
ica	-12.6361
hood	-12.6363
parent	-12.6367
▁Stamford	-12.6369
▁privatization	-12.6369
manufactured	-12.6373
designate	-12.6378
od	-12.6382
▁overturn	-12.6383
violent	-12.6385
▁Critic	-12.6385
cyclical	-12.6385
▁premature	-12.6385
▁Barbara	-12.6385
▁Morton	-12.6386
▁Ly	-12.6387
▁perceived	-12.639
12	-12.6393
▁mess	-12.6393
▁ideal	-12.6396
▁teaching	-12.6397
has	-12.6401
connected	-12.6403
▁Sa	-12.6404
▁shops	-12.6407
mate	-12.6412
▁bars	-12.6416
▁expos	-12.6417
▁Rorer	-12.6418
about	-12.642
▁cruise	-12.6422
▁deduct	-12.6422
file	-12.6425
quest	-12.6425
1987	-12.6427
▁Nat	-12.6428
▁unspecifi	-12.6431
ig	-12.6431
protein	-12.6434
▁Beatrice	-12.6434
juice	-12.6434
▁translate	-12.6434
▁Housing	-12.6435
bomber	-12.6438
▁stuck	-12.644
IV	-12.6443
took	-12.6444
▁historic	-12.6445
▁FEDERAL	-12.645
▁gambling	-12.645
▁Christopher	-12.645
cur	-12.6451
▁pose	-12.6458
hunting	-12.6467
vowed	-12.6468
/2	-12.6469
saw	-12.647
▁Are	-12.647
▁degrees	-12.6471
▁copyright	-12.6473
▁87.5	-12.6473
ni	-12.6473
▁grip	-12.6475
▁amendments	-12.6476
pipe	-12.6482
▁sideline	-12.6485
actor	-12.649
dependence	-12.6496
▁toy	-12.6498
▁wins	-12.6499
▁diversion	-12.65
▁suburban	-12.6502
▁mistakes	-12.6505
ucci	-12.651
▁variation	-12.6516
▁bags	-12.6519
▁answers	-12.6521
▁topic	-12.6523
▁Special	-12.6524
▁conducting	-12.6533
▁Airport	-12.6534
▁mild	-12.6535
▁whites	-12.6535
regulated	-12.6538
mann	-12.654
▁Mike	-12.6541
ichi	-12.6543
freight	-12.6543
▁retiree	-12.6544
▁Integrat	-12.6547
bur	-12.6549
▁CFTC	-12.6549
▁Posner	-12.6549
listed	-12.6554
▁believ	-12.6559
criticize	-12.6562
▁contrar	-12.6563
ob	-12.6568
▁Sprint	-12.657
▁AMC	-12.657
27	-12.6571
▁sight	-12.6574
Owens	-12.6577
done	-12.6579
72	-12.658
▁governors	-12.658
▁GAF	-12.6582
benefit	-12.6585
backs	-12.6589
tennis	-12.6598
▁Amsterdam	-12.6598
▁Professional	-12.6598
op	-12.6603
lines	-12.6612
▁upgrade	-12.6612
forming	-12.6613
▁categories	-12.6615
▁Solidarity	-12.6616
▁choices	-12.6622
ence	-12.6625
addict	-12.6626
cat	-12.6629
sh	-12.663
lee	-12.663
▁Appeal	-12.6632
▁Brooks	-12.6632
riot	-12.6632
determination	-12.6632
▁frustration	-12.6633
▁orange	-12.6637
drama	-12.6638
▁Des	-12.664
▁Herbert	-12.6648
▁OSHA	-12.6648
▁universities	-12.6648
▁adults	-12.6648
▁1994	-12.6649
▁purchaser	-12.6653
▁trees	-12.6653
▁specifie	-12.6654
▁featur	-12.6654
len	-12.6657
Corning	-12.666
offer	-12.6667
information	-12.6671
vote	-12.6677
fulfill	-12.6679
23	-12.6681
▁donation	-12.6681
▁Kaufman	-12.6682
▁Municipal	-12.6682
▁external	-12.6682
▁remote	-12.6682
▁Non	-12.6685
tier	-12.669
▁revers	-12.6692
journal	-12.6693
68	-12.6695
visible	-12.6695
lect	-12.6703
contaminat	-12.6715
Universal	-12.6715
▁liquor	-12.6715
santo	-12.6716
▁prolong	-12.6716
neg	-12.6719
eating	-12.6721
▁persist	-12.6722
ility	-12.6724
▁tear	-12.6726
▁intermediate	-12.6732
▁Greek	-12.6732
▁Holly	-12.6735
▁appealing	-12.6737
37	-12.6739
▁Wal	-12.6741
Forest	-12.6744
▁Mills	-12.6745
links	-12.6747
station	-12.6747
▁Braniff	-12.6749
▁Schwab	-12.6749
▁clause	-12.6749
▁cement	-12.675
▁weigh	-12.6751
printed	-12.6752
▁Libera	-12.6756
ray	-12.676
▁endors	-12.6761
tune	-12.6763
▁psychological	-12.6765
▁smart	-12.6766
common	-12.6773
neutral	-12.679
mobile	-12.6794
▁Polish	-12.6799
▁Cannon	-12.68
cancer	-12.6801
▁Metro	-12.6801
ha	-12.6803
planning	-12.6807
fare	-12.6809
lung	-12.681
▁beside	-12.6811
▁Panamanian	-12.6816
▁broadcaster	-12.6821
tar	-12.6824
pin	-12.6824
▁clinic	-12.6824
▁Ne	-12.6826
money	-12.6829
▁270	-12.683
basket	-12.6833
▁foresee	-12.6841
▁heading	-12.6845
word	-12.6845
Piedmont	-12.685
▁Holiday	-12.685
▁Andersen	-12.685
retirement	-12.6851
▁Mel	-12.6853
▁stems	-12.6853
▁Kopper	-12.6854
▁bureaucrat	-12.6864
Communist	-12.6864
▁fraudulent	-12.6867
▁Earning	-12.6868
recogniz	-12.687
letting	-12.6873
▁McCa	-12.6883
▁Members	-12.6884
▁Dakota	-12.6884
▁Unfortunate	-12.6884
▁abrupt	-12.6884
▁Hungary	-12.6884
▁interstate	-12.6884
resumed	-12.6887
47	-12.689
▁Gren	-12.6894
Israeli	-12.6896
lum	-12.6897
▁Commissioner	-12.69
▁Arnold	-12.6901
▁imminent	-12.6901
▁Kuwaiti	-12.6904
Banc	-12.6916
▁Plan	-12.6916
99	-12.6918
▁Federation	-12.6918
▁Consider	-12.6918
▁Alex	-12.6919
lick	-12.692
rust	-12.6926
▁exists	-12.6928
▁speaker	-12.693
screen	-12.6935
▁Hyundai	-12.6935
▁jurisdiction	-12.6935
casualty	-12.6937
▁stockbroker	-12.6937
135	-12.6943
read	-12.6944
▁concentrat	-12.6944
▁cancel	-12.6944
linger	-12.695
ken	-12.6952
▁rebuff	-12.6953
First	-12.6957
lowering	-12.6958
telephone	-12.6958
▁curtail	-12.6969
▁perspective	-12.697
jet	-12.697
▁franchisee	-12.6972
▁Brad	-12.6975
▁incorrect	-12.6977
clo	-12.6977
▁authors	-12.6978
cream	-12.6981
produce	-12.6983
mon	-12.6983
7.50	-12.6984
▁wisdom	-12.6987
▁highlight	-12.6989
aut	-12.6991
▁Mason	-12.6992
firm	-12.6992
MA	-12.6995
▁pair	-12.7002
▁disappointment	-12.7004
▁Newark	-12.7005
▁LO	-12.7012
▁cigarettes	-12.7014
▁raiders	-12.7015
▁pharmaceuticals	-12.7016
record	-12.702
▁slate	-12.7028
increase	-12.7031
▁Steve	-12.7032
bid	-12.7033
consum	-12.7036
▁Policy	-12.7039
▁brisk	-12.704
removal	-12.704
▁Fu	-12.7041
▁Out	-12.7041
und	-12.7051
AND	-12.7054
responding	-12.7055
fle	-12.7055
▁Perspective	-12.7056
▁plot	-12.7057
ware	-12.7057
▁applie	-12.7063
ants	-12.7068
▁deliberate	-12.707
▁Eugen	-12.7071
alive	-12.7071
▁forget	-12.7073
champ	-12.7073
▁comprehensive	-12.7074
▁Jenr	-12.7077
▁accrued	-12.7077
▁150,000	-12.708
writer	-12.7086
▁entitl	-12.7087
shooting	-12.7089
▁journalists	-12.7089
▁Simmons	-12.7091
▁Nicholas	-12.7091
terrorism	-12.7091
▁Jimmy	-12.7091
▁Women	-12.7092
▁reache	-12.7093
▁Cle	-12.7097
▁damp	-12.7103
phone	-12.7103
EC	-12.7104
▁solutions	-12.7104
subsidy	-12.7106
matur	-12.7109
yourself	-12.711
▁advertisement	-12.7111
▁preced	-12.7111
switching	-12.7112
rock	-12.7117
relief	-12.7119
▁reconsider	-12.7126
again	-12.7126
▁600,000	-12.7126
possess	-12.7132
gel	-12.7133
Te	-12.7135
allocation	-12.7143
▁Accounting	-12.7146
▁Southmark	-12.7147
Leo	-12.7149
▁overtime	-12.715
zer	-12.7156
plain	-12.716
▁incumbent	-12.7161
▁Neill	-12.7161
awley	-12.7162
help	-12.7167
attack	-12.7172
▁terminated	-12.7173
8.75	-12.7175
▁Webb	-12.7177
Eagle	-12.7178
▁Motorola	-12.7178
midnight	-12.718
▁tanks	-12.7185
shoulder	-12.7191
▁diversify	-12.7196
▁Portland	-12.7196
▁Howell	-12.7197
▁retaliat	-12.7198
▁Near	-12.7202
▁thwart	-12.7202
▁experimental	-12.7212
▁entrepreneurs	-12.7213
likelihood	-12.7213
qui	-12.7218
▁Jeffer	-12.7221
luck	-12.7223
▁locked	-12.7226
1988	-12.7228
bread	-12.7231
▁vague	-12.7231
▁decree	-12.7231
▁Stanford	-12.7231
▁Review	-12.7232
▁Thi	-12.7236
▁taxpayer	-12.724
▁Equiti	-12.7241
▁Safe	-12.7246
▁paintings	-12.725
▁Su	-12.7254
ite	-12.7257
▁shorter	-12.7262
confirm	-12.7265
▁Ashland	-12.7267
▁seeming	-12.7269
▁dip	-12.7282
binding	-12.7284
▁Schwartz	-12.7284
leg	-12.7285
meal	-12.7289
ow	-12.7302
▁donor	-12.7305
infected	-12.7306
ize	-12.7314
fishing	-12.7318
compatible	-12.7319
plate	-12.7319
▁towns	-12.732
▁Staff	-12.732
▁Amex	-12.7321
▁calculation	-12.7322
▁balanced	-12.7324
▁Trav	-12.7327
▁devoted	-12.733
▁deduction	-12.733
had	-12.7332
▁boys	-12.7332
▁trace	-12.7335
▁tighter	-12.7341
▁unknown	-12.7342
arts	-12.7345
weapons	-12.7345
▁toll	-12.7346
▁Cie	-12.7348
▁governing	-12.735
▁presentation	-12.7352
▁Fortune	-12.7357
▁musical	-12.7357
▁Borg	-12.7357
arch	-12.7359
integrated	-12.7364
ke	-12.7368
▁covert	-12.7371
▁Hawaii	-12.7371
Nakasone	-12.7373
▁Cities	-12.7379
▁Greene	-12.7383
▁Har	-12.7389
scal	-12.7389
needed	-12.7391
▁Vancouver	-12.7391
march	-12.7391
▁Nestle	-12.7391
▁Premier	-12.7391
flier	-12.7394
▁Dae	-12.7397
▁Europeans	-12.7398
Tate	-12.7406
iest	-12.7409
▁Hor	-12.7409
▁NCNB	-12.7409
▁envision	-12.7412
hook	-12.7413
improvement	-12.7416
▁overhead	-12.7421
stages	-12.7426
Fed	-12.7426
guidance	-12.7427
▁taught	-12.7429
▁refinery	-12.7431
east	-12.7435
aged	-12.7446
▁refinancing	-12.7446
▁industrialized	-12.7447
▁conspir	-12.746
caus	-12.7461
▁syndicat	-12.7461
▁Griffin	-12.7463
▁indefinite	-12.7463
▁scenario	-12.7463
▁Nuclear	-12.7463
▁niche	-12.7464
▁instruct	-12.7467
▁supple	-12.7481
▁speculators	-12.7484
▁Iron	-12.7487
6.25	-12.7489
Mor	-12.7494
▁Nikk	-12.7498
Embass	-12.7499
▁Okla	-12.7499
▁Greenwich	-12.7499
▁Suisse	-12.75
▁Ros	-12.75
etna	-12.7505
tas	-12.7509
▁Games	-12.751
ab	-12.7512
▁Ark	-12.7515
border	-12.7516
▁statistical	-12.7516
▁commerce	-12.7518
▁Yale	-12.7518
ploy	-12.7518
▁Ruder	-12.752
▁residential	-12.7522
▁Wo	-12.7523
▁Mayor	-12.7523
▁advanc	-12.7523
heated	-12.7524
European	-12.7528
▁Ron	-12.7528
plan	-12.7531
watch	-12.7535
pocket	-12.7536
▁Rubber	-12.7536
▁analyze	-12.7536
▁chunk	-12.7536
Vermont	-12.7536
▁Show	-12.7537
▁spinoff	-12.7537
▁Program	-12.7539
▁designs	-12.7541
ious	-12.7542
1,200	-12.7544
▁deploy	-12.7554
▁Kremlin	-12.7554
▁foster	-12.7554
▁Jew	-12.7563
3.75	-12.7565
working	-12.7567
▁drain	-12.7568
▁Mann	-12.7568
▁specialized	-12.7571
yielding	-12.7573
▁Norway	-12.7574
Mat	-12.7575
authorization	-12.7577
ek	-12.7578
too	-12.7578
▁compensate	-12.7579
▁closes	-12.7583
graphics	-12.7585
▁Construction	-12.7591
▁infection	-12.7591
hi	-12.7593
▁cleanup	-12.7593
▁scholar	-12.7606
grass	-12.7615
14	-12.7615
ich	-12.7617
▁Yama	-12.7617
▁dissent	-12.7623
▁unwilling	-12.7627
▁Madi	-12.7633
▁conversation	-12.764
Tel	-12.7641
depth	-12.7646
▁accompany	-12.7646
▁Knight	-12.7647
▁loose	-12.7649
4.50	-12.7651
evil	-12.7652
breath	-12.7656
▁Rochester	-12.7664
rule	-12.7664
▁defraud	-12.7665
sound	-12.7665
▁cry	-12.767
owitz	-12.7671
▁superpower	-12.7676
paper	-12.7678
▁Stewart	-12.7682
▁beautiful	-12.7682
▁Decker	-12.7683
▁Comex	-12.7683
3.50	-12.7689
lawyer	-12.7691
64	-12.7691
▁sinking	-12.7691
ible	-12.7693
▁Kroger	-12.7701
▁Square	-12.7701
▁parallel	-12.7701
▁delegation	-12.7701
xon	-12.7703
tent	-12.7705
ik	-12.7711
42	-12.7718
▁pet	-12.7729
evaluation	-12.7731
▁immunit	-12.7738
▁Police	-12.7738
8.25	-12.7743
mm	-12.7749
▁175	-12.7753
▁Arkansas	-12.7757
▁Sumitomo	-12.7757
hrew	-12.7757
▁deem	-12.7757
January	-12.7759
▁Da	-12.7775
racketeering	-12.7775
▁multinational	-12.7777
▁digital	-12.7779
▁replied	-12.7781
▁Connor	-12.7781
FM	-12.7785
▁Tiger	-12.779
ban	-12.7793
▁Margaret	-12.7794
emp	-12.7794
▁homeless	-12.7801
▁waiver	-12.7802
▁Tal	-12.7803
▁Macy	-12.7809
▁exhibit	-12.7809
intended	-12.7812
▁Liberty	-12.7813
▁insurgent	-12.7813
▁expression	-12.7813
ko	-12.7815
ountain	-12.7816
▁Em	-12.7818
▁buildup	-12.782
▁infusion	-12.7823
▁penn	-12.7825
haul	-12.7831
▁beneficial	-12.7831
racing	-12.7843
▁Proxmire	-12.785
clock	-12.7851
examination	-12.7853
▁Plains	-12.7854
▁unrelated	-12.786
Clark	-12.7862
real	-12.7865
▁Electronic	-12.7865
McGraw	-12.7869
▁Waste	-12.7869
flat	-12.787
ON	-12.7873
▁cheer	-12.7884
▁Adviser	-12.7888
▁passive	-12.7888
liberalization	-12.7888
▁garden	-12.7891
▁reservations	-12.7892
▁Walt	-12.7904
▁1968	-12.7906
ipped	-12.7906
▁Taipei	-12.7907
Marxist	-12.7907
▁Friedman	-12.7909
▁farmer	-12.7912
▁sooner	-12.7923
▁Salvador	-12.7923
citizen	-12.7924
▁persistent	-12.7926
▁variable	-12.7926
▁premier	-12.7927
financing	-12.7929
November	-12.7934
▁scrap	-12.7937
▁drinking	-12.7941
▁register	-12.7942
▁unfortunate	-12.7944
fetch	-12.7946
▁realistic	-12.7948
▁Whi	-12.7948
check	-12.7949
▁Nations	-12.7956
designed	-12.7957
lsewhere	-12.7961
▁Pi	-12.7963
▁Craig	-12.7963
▁convenience	-12.7963
winning	-12.7969
▁bondholder	-12.7972
withholding	-12.7972
▁clone	-12.7973
▁Sell	-12.7977
▁cooperat	-12.7978
▁wonderful	-12.7979
▁Governor	-12.7982
▁Grumman	-12.7982
▁genuine	-12.7982
enemy	-12.7982
▁anniversary	-12.7985
tended	-12.799
▁significan	-12.7991
act	-12.7993
shell	-12.7999
Busch	-12.8001
▁Lipper	-12.8002
▁researcher	-12.8002
▁Holder	-12.8003
▁Coastal	-12.8003
ear	-12.8004
▁toys	-12.8006
▁critic	-12.8008
hotel	-12.8012
▁Lar	-12.8012
▁PepsiCo	-12.802
severance	-12.8021
▁Operating	-12.8021
▁TRW	-12.8021
▁assignment	-12.8021
gallon	-12.8022
▁Gree	-12.8023
science	-12.8024
ER	-12.8027
Bow	-12.8034
▁inject	-12.8038
▁presum	-12.8038
▁thanks	-12.8039
▁innovation	-12.804
▁placing	-12.804
▁Ireland	-12.804
80,000	-12.8042
9.75	-12.8042
▁Custom	-12.8043
▁hurdle	-12.8044
▁Pen	-12.8046
▁bail	-12.8057
illness	-12.8059
52	-12.8059
▁Collins	-12.8059
▁Ryan	-12.8059
▁proceeding	-12.806
digit	-12.8073
sank	-12.8074
▁Guard	-12.8075
▁Almost	-12.8078
▁survival	-12.8079
▁underground	-12.808
▁prospectus	-12.8082
document	-12.8082
wall	-12.8083
Share	-12.8089
▁40-	-12.8089
▁sad	-12.8093
▁disappear	-12.8094
▁Pierce	-12.8097
▁Anglo	-12.8097
▁infant	-12.8098
▁endorsement	-12.8099
▁Broker	-12.8101
▁drill	-12.8102
five	-12.8104
7.75	-12.8105
opt	-12.8109
▁tripled	-12.811
▁importer	-12.811
▁Doe	-12.8112
▁PAC	-12.8115
▁Wasser	-12.8117
▁dismissal	-12.8118
▁underscore	-12.8118
aff	-12.8122
▁trips	-12.8127
▁subsidize	-12.813
26	-12.8131
with	-12.8135
vehicle	-12.8135
ky	-12.8136
▁Partnership	-12.8136
▁Pope	-12.8137
▁Petro	-12.814
roll	-12.8141
NA	-12.8146
▁18-	-12.8146
▁Ala	-12.8149
▁115	-12.8153
▁Mideast	-12.8155
▁AZT	-12.8155
shore	-12.8155
hits	-12.8163
ome	-12.8169
▁flows	-12.817
▁prosper	-12.8174
▁accommodate	-12.8174
▁construct	-12.8176
▁tires	-12.8177
▁Ted	-12.818
▁admitt	-12.8184
books	-12.819
▁Br	-12.8191
▁Brock	-12.8192
dai	-12.8192
▁outline	-12.8193
▁Mulroney	-12.8194
▁initiate	-12.8204
South	-12.8205
hit	-12.8209
logical	-12.8214
▁Suez	-12.8215
▁disagreement	-12.8216
New	-12.8217
hart	-12.8219
fed	-12.822
say	-12.8221
spun	-12.8222
tube	-12.8224
Luc	-12.823
par	-12.823
▁formation	-12.8231
manager	-12.8232
▁calendar	-12.8233
▁painting	-12.8233
resource	-12.8234
educated	-12.8238
▁enthusiastic	-12.825
twist	-12.8251
▁Puert	-12.8253
▁sometime	-12.8254
▁Hammer	-12.8254
▁Edwards	-12.8254
▁1971	-12.8257
▁achievement	-12.826
you	-12.826
▁PRI	-12.8262
lib	-12.8269
fee	-12.8271
▁Ver	-12.8272
▁Hertz	-12.8272
defending	-12.8278
▁11.5	-12.8282
EL	-12.8286
▁Colombia	-12.8287
fu	-12.8289
material	-12.8294
preparation	-12.8297
assembl	-12.8299
▁1998	-12.8302
Card	-12.8302
covered	-12.8304
▁visitors	-12.8304
▁commander	-12.8306
Cook	-12.8311
▁Advertising	-12.8311
▁suspicion	-12.8311
▁Perelman	-12.8311
▁excuse	-12.8312
tall	-12.8316
being	-12.8319
▁Radio	-12.832
▁Fult	-12.8323
pulling	-12.8324
yo	-12.8325
▁honest	-12.8327
▁Audi	-12.8327
resident	-12.8329
counted	-12.8329
▁Should	-12.8331
▁mainstream	-12.8331
▁1967	-12.8332
faced	-12.8334
▁slumped	-12.8334
▁complet	-12.8335
▁Plann	-12.8337
asset	-12.835
▁interbank	-12.8351
▁Olson	-12.8351
▁inner	-12.8354
▁Bre	-12.8364
unconstitutional	-12.837
▁superconductor	-12.8371
▁Open	-12.8372
efficient	-12.8374
▁depart	-12.8379
▁addressed	-12.8383
▁MD	-12.8384
▁102	-12.8385
▁Urban	-12.8386
▁thorough	-12.839
▁Alabama	-12.839
▁arrival	-12.8391
▁reversal	-12.8391
post	-12.8394
▁550	-12.8398
▁OF	-12.8402
joy	-12.8406
▁joke	-12.8408
▁Rico	-12.8408
Fort	-12.8409
▁attraction	-12.8415
▁nose	-12.8424
rum	-12.8425
▁smile	-12.8426
▁rebuild	-12.8427
▁Brooklyn	-12.843
▁Na	-12.843
▁Everybody	-12.8431
aims	-12.8432
▁Interco	-12.8432
▁26-	-12.8433
▁integrity	-12.8433
▁Abrams	-12.8433
owes	-12.8436
▁hopeful	-12.8436
two	-12.8441
established	-12.8445
▁adapt	-12.8449
▁Pepsi	-12.845
▁Semiconductor	-12.845
partisan	-12.845
▁McFarlane	-12.845
▁Production	-12.8452
meets	-12.8452
▁repeat	-12.8452
alike	-12.8454
▁1930	-12.8454
qua	-12.846
▁Min	-12.8461
ridge	-12.8462
▁consult	-12.8463
athlete	-12.8467
supercomputer	-12.8467
▁avert	-12.847
▁moratorium	-12.847
chapter	-12.847
lending	-12.8476
6.75	-12.8479
ups	-12.8488
▁Mitterrand	-12.849
▁Warsaw	-12.849
▁elite	-12.8491
▁nurse	-12.8492
▁golden	-12.8494
employee	-12.8497
▁editors	-12.8499
▁approache	-12.8507
battered	-12.851
preneur	-12.851
▁diversification	-12.851
▁tenure	-12.851
▁claimants	-12.851
Donald	-12.851
▁innovative	-12.8512
▁photo	-12.8528
▁deteriorat	-12.8529
▁Macintosh	-12.853
baum	-12.8531
rself	-12.8538
▁retir	-12.8538
▁Laws	-12.854
nor	-12.8541
induce	-12.8548
▁steal	-12.855
manipulation	-12.855
▁Fifth	-12.855
▁Division	-12.855
plague	-12.855
▁Academy	-12.8551
▁regardles	-12.8551
branch	-12.8552
▁Cox	-12.8558
▁distributors	-12.856
tim	-12.8569
▁Elizabeth	-12.857
▁mirror	-12.857
▁Initial	-12.857
normal	-12.8574
▁confused	-12.8574
wheel	-12.858
▁collective	-12.858
worker	-12.8582
tip	-12.8589
▁Music	-12.8589
checking	-12.8589
conscious	-12.8589
▁Result	-12.8591
valuation	-12.8593
▁Shareholder	-12.8594
▁pioneer	-12.8611
Family	-12.8611
▁bipartisan	-12.8611
Texas	-12.8612
rose	-12.8614
▁somewhere	-12.8617
▁segments	-12.862
crime	-12.8624
video	-12.8624
▁visiting	-12.8627
▁Zeni	-12.8629
▁bother	-12.863
▁Honeywell	-12.8631
▁breakthrough	-12.8631
11	-12.8631
▁machinist	-12.8633
▁everywhere	-12.8634
subsidiz	-12.8635
▁Johnston	-12.8637
▁Carol	-12.864
▁grower	-12.8641
▁Hard	-12.8643
ated	-12.8647
58	-12.865
▁Idaho	-12.8651
▁undisclos	-12.8651
▁Staley	-12.8651
▁Pearson	-12.8651
fuel	-12.8652
▁fairness	-12.8654
▁Project	-12.8661
▁adoption	-12.8663
director	-12.8667
BANK	-12.8672
▁depreciation	-12.8672
▁Garden	-12.8673
▁Rome	-12.8683
▁questioning	-12.8687
Ten	-12.8691
▁implemented	-12.8693
flight	-12.8698
pressure	-12.8698
▁similarly	-12.8708
▁Iacocca	-12.8712
▁Medicaid	-12.8712
ator	-12.8714
▁camps	-12.8718
▁discounted	-12.8719
▁altogether	-12.8722
search	-12.8723
Iranian	-12.8725
▁650	-12.8725
ircraft	-12.8725
▁belong	-12.8726
▁hide	-12.8727
provincial	-12.8733
▁Chancellor	-12.8733
▁Private	-12.8733
▁blunt	-12.8733
▁Software	-12.8733
▁religion	-12.8733
yellow	-12.8733
▁Tandy	-12.8734
RC	-12.8735
▁unhapp	-12.8738
tail	-12.8738
▁breakup	-12.8739
del	-12.8747
Prince	-12.8753
▁microprocessor	-12.8753
jewelry	-12.8754
▁108	-12.8756
ives	-12.8757
▁journalist	-12.8761
▁postal	-12.8761
speculat	-12.8763
▁possibilit	-12.877
▁define	-12.8773
▁PLO	-12.8774
automation	-12.8774
but	-12.8776
Chem	-12.8779
ff	-12.878
▁channels	-12.8781
▁bears	-12.8783
▁yes	-12.8783
▁scarce	-12.879
▁Marvi	-12.8791
nominated	-12.8794
NATIONAL	-12.8795
▁Mc	-12.8795
education	-12.8795
ock	-12.8796
▁Wag	-12.8797
▁elevat	-12.8798
debenture	-12.8799
▁peer	-12.8801
▁veterans	-12.8802
cleaning	-12.8804
under	-12.8806
53	-12.8807
ker	-12.8811
▁comfort	-12.8813
▁drag	-12.8814
▁Salinas	-12.8815
▁Typical	-12.8815
▁GAO	-12.8815
▁approvals	-12.8819
▁Weiss	-12.882
▁mothers	-12.8826
▁shifting	-12.8828
▁sour	-12.8829
premium	-12.8834
color	-12.8835
▁condemn	-12.8836
▁issuance	-12.8837
dragg	-12.8841
▁Ku	-12.8844
▁unnecessar	-12.8845
self	-12.8849
▁Graham	-12.8857
Broadway	-12.8857
▁trimmed	-12.8858
▁hamper	-12.8858
fer	-12.8858
dust	-12.8859
cock	-12.886
▁flash	-12.886
job	-12.887
▁Corn	-12.8876
▁tankers	-12.8879
▁anxious	-12.8879
▁pursuit	-12.8881
▁3-	-12.8884
bra	-12.8885
aramount	-12.8886
chest	-12.8886
grown	-12.8891
mbi	-12.8891
first	-12.8891
▁Citizens	-12.8895
▁garbage	-12.8898
5/16	-12.8899
▁Publishing	-12.8899
Burns	-12.8899
Europe	-12.89
matched	-12.89
▁concentration	-12.8901
xo	-12.8902
▁posting	-12.8903
▁incomes	-12.8913
▁waters	-12.8914
▁Morrison	-12.8915
39	-12.8916
ue	-12.8917
70,000	-12.8917
▁affirm	-12.8918
▁Ball	-12.8925
▁ethical	-12.8926
metal	-12.8929
▁clash	-12.893
▁Fairchild	-12.8934
▁1995	-12.8936
▁Karl	-12.8937
▁Judicia	-12.894
▁stockpile	-12.894
▁Nunn	-12.8941
▁priorities	-12.8941
▁jobless	-12.8942
fixing	-12.8943
enberg	-12.8945
CI	-12.8946
▁swell	-12.8948
▁consolidate	-12.8954
▁remarkabl	-12.8955
▁profession	-12.8956
Fujitsu	-12.8961
▁HBO	-12.8961
rigid	-12.8961
▁trustees	-12.8961
▁Deng	-12.8962
▁postpon	-12.8973
▁loud	-12.8981
option	-12.8982
contracting	-12.8984
▁readi	-12.8985
demand	-12.8989
LE	-12.8996
istic	-12.8996
Age	-12.8999
▁Bethlehem	-12.9003
▁Marietta	-12.9003
▁Shanghai	-12.9003
▁conceal	-12.9003
▁Haft	-12.9003
▁tourists	-12.901
▁installation	-12.9012
approval	-12.9022
Pontiac	-12.9024
▁Investigation	-12.9024
▁NEC	-12.9025
▁shopper	-12.9033
▁exit	-12.9034
ash	-12.9042
▁prompting	-12.9043
▁recorder	-12.9043
▁cocoa	-12.9046
zo	-12.9051
▁personality	-12.9054
▁memori	-12.9055
HM	-12.9059
▁disks	-12.906
▁salesman	-12.906
▁Op	-12.9065
▁hidden	-12.9067
▁MCorp	-12.9068
▁Rat	-12.9075
destructi	-12.9079
mel	-12.908
enter	-12.9087
▁homosexual	-12.9088
▁Bernstein	-12.9088
Test	-12.9088
▁random	-12.9088
▁Fall	-12.9088
tender	-12.9089
▁distinction	-12.909
▁Fireman	-12.909
▁Ge	-12.9097
posed	-12.9098
rolling	-12.9102
IT	-12.9105
▁determin	-12.9106
▁McKin	-12.9109
▁dispos	-12.911
fo	-12.911
ebuck	-12.9114
US	-12.9117
▁Lane	-12.9126
▁Ultimate	-12.913
▁disadvantage	-12.913
▁NWA	-12.9132
▁Orion	-12.9133
Day	-12.9135
ph	-12.9138
fa	-12.9139
Bat	-12.914
button	-12.9141
▁dose	-12.9144
▁Yes	-12.9147
▁Upjohn	-12.9152
▁crazy	-12.9152
▁phrase	-12.9152
▁structural	-12.9152
▁Tampa	-12.9152
▁ICN	-12.9152
200	-12.9153
hitting	-12.9153
Canadian	-12.9153
▁Orange	-12.9157
▁Salt	-12.9162
sits	-12.9162
buses	-12.9168
Ferri	-12.9169
▁wars	-12.9171
trans	-12.9173
▁RICO	-12.9173
Craft	-12.9174
dynamic	-12.9174
▁Levy	-12.9175
chi	-12.9175
▁Copper	-12.9176
34	-12.9179
▁Independent	-12.9183
▁Sri	-12.9184
disciplin	-12.9184
31	-12.9187
▁rob	-12.9187
▁Main	-12.919
bury	-12.919
▁kitchen	-12.9195
▁Buick	-12.9195
▁Building	-12.9195
▁hail	-12.9198
▁INS	-12.92
▁Cel	-12.9203
▁Eric	-12.9206
shi	-12.9209
Montedison	-12.9216
▁voluntari	-12.9216
ynex	-12.9217
▁raider	-12.9228
▁underwrite	-12.9229
evaluat	-12.923
▁recalled	-12.9232
▁Arm	-12.9233
degree	-12.9237
▁ambition	-12.9238
▁Brennan	-12.9238
pilot	-12.9239
▁feelings	-12.9249
termination	-12.925
▁beating	-12.9255
▁liquidate	-12.9259
▁Calgary	-12.9259
▁offense	-12.9259
▁lumber	-12.926
▁prisoners	-12.9261
RI	-12.9261
screening	-12.9263
financial	-12.927
LB	-12.927
▁tap	-12.927
▁Syria	-12.9275
stepping	-12.9275
▁Giuliani	-12.9281
▁Biden	-12.9282
▁Gil	-12.9288
▁accuse	-12.9288
impose	-12.9293
Cor	-12.9293
▁Book	-12.9295
tually	-12.9296
▁Beirut	-12.9303
▁invasion	-12.9303
▁provoke	-12.9303
▁Chirac	-12.9303
▁Relations	-12.9303
Stock	-12.9303
lifetime	-12.9308
highest	-12.931
▁revolving	-12.9311
disturb	-12.9313
rap	-12.9314
guilder	-12.9316
▁guns	-12.9324
▁phenomenon	-12.9324
proclaim	-12.9325
▁crashed	-12.933
ile	-12.9332
▁190	-12.9332
▁liquidat	-12.9334
taken	-12.9336
▁Sara	-12.9343
▁McCart	-12.9346
urveillance	-12.9346
▁Harvey	-12.9346
SA	-12.9346
▁basketball	-12.9346
1/16	-12.9346
lacks	-12.9346
▁coordinate	-12.9347
seal	-12.9347
rl	-12.9347
▁tapes	-12.9347
DC	-12.9348
copi	-12.935
▁Strauss	-12.9357
AL	-12.9366
residential	-12.9368
▁inherent	-12.9368
▁imposing	-12.9368
worn	-12.9369
▁song	-12.9377
standard	-12.9382
▁clou	-12.9386
Cadillac	-12.939
▁Charlotte	-12.939
▁Vienna	-12.939
Mart	-12.9392
gi	-12.9395
▁Buy	-12.9397
duck	-12.9398
▁folks	-12.94
anford	-12.9402
▁McD	-12.9402
void	-12.941
▁LTD	-12.9412
▁ingredient	-12.9412
▁shadow	-12.9412
▁naval	-12.9412
▁hammer	-12.9412
▁percent	-12.9413
▁lobbyists	-12.9413
▁balk	-12.9415
▁Mal	-12.9419
▁reserved	-12.9421
▁50-	-12.9422
▁Les	-12.9425
▁enroll	-12.9426
▁knock	-12.9429
▁Start	-12.943
▁Belt	-12.9431
▁Kirk	-12.9434
consulting	-12.9435
▁expose	-12.9435
▁context	-12.9436
engineering	-12.9436
▁tissue	-12.9449
▁shoot	-12.9453
egotiable	-12.9456
▁Hongkong	-12.9456
▁humor	-12.9456
patch	-12.9457
▁wholly	-12.9457
▁lesser	-12.9463
radiation	-12.9468
▁Monte	-12.947
▁Berke	-12.9473
▁Societ	-12.9476
cars	-12.9477
Irwin	-12.9478
▁Apollo	-12.9478
sentencing	-12.9478
captured	-12.948
▁Bally	-12.9482
▁Ber	-12.9483
amount	-12.9484
shirt	-12.9487
wrote	-12.9489
repaid	-12.949
▁Spring	-12.9491
sur	-12.9492
▁103	-12.9493
▁diet	-12.95
affiliate	-12.95
▁convincing	-12.95
▁beauty	-12.95
cancellation	-12.95
shield	-12.95
▁defect	-12.9502
stabiliz	-12.9502
▁cope	-12.9502
▁boot	-12.9505
ina	-12.9506
ficia	-12.9507
▁hostage	-12.9511
▁proponent	-12.9511
availabilit	-12.9513
▁13.5	-12.9515
▁Lauren	-12.9521
▁Winter	-12.9523
▁seminar	-12.9523
▁trucking	-12.9534
sco	-12.9535
shirts	-12.9535
▁fires	-12.9541
▁mailing	-12.9541
code	-12.9542
▁Ernest	-12.9544
▁Stuart	-12.9544
▁Dingell	-12.9545
▁Assembly	-12.9545
mask	-12.9545
▁Tisch	-12.9545
skilled	-12.9545
▁republic	-12.9547
spoken	-12.9548
▁Mines	-12.955
▁uncover	-12.9551
▁distress	-12.9551
▁Machine	-12.9552
▁Toy	-12.9555
SE	-12.956
▁contender	-12.9562
take	-12.9563
▁24-	-12.9563
wept	-12.9567
▁Geller	-12.9567
▁Stern	-12.9567
▁Mineral	-12.9567
Bradley	-12.9567
▁exhibition	-12.9569
▁Metal	-12.9569
ong	-12.957
▁arena	-12.9571
▁Bio	-12.9572
▁Buck	-12.9572
▁instructions	-12.9577
amin	-12.9584
▁Unix	-12.959
▁Add	-12.9593
prop	-12.9596
▁lights	-12.9601
▁240	-12.9604
1.125	-12.9604
aiwa	-12.9605
therapy	-12.9605
▁experienc	-12.9609
smokers	-12.9609
▁reception	-12.9611
▁applaud	-12.9615
▁refinance	-12.9617
▁Falcon	-12.9621
32	-12.9632
▁questionable	-12.9632
▁Exploration	-12.9634
shocked	-12.964
▁Action	-12.9641
▁appreciate	-12.9643
▁Retail	-12.9645
▁burned	-12.9649
TI	-12.9652
▁embrace	-12.9653
▁Nation	-12.9655
▁eastern	-12.9656
▁terrible	-12.9656
don	-12.9657
▁quotation	-12.9658
▁refiner	-12.9658
▁protectionism	-12.9659
▁forecaster	-12.966
5.25	-12.9662
max	-12.9668
▁Kerr	-12.9669
French	-12.9674
pie	-12.9675
▁charm	-12.9676
▁minimal	-12.9678
tact	-12.9679
▁Boone	-12.9681
▁meaningful	-12.9682
lets	-12.9692
revolutionar	-12.9694
phones	-12.9696
:01	-12.9701
▁Caribbean	-12.9701
▁catastrophic	-12.9701
lined	-12.9708
▁Mead	-12.971
laying	-12.9713
capita	-12.9716
coin	-12.9717
▁outperform	-12.9722
+	-12.9724
▁dilemma	-12.9724
BA	-12.9726
▁tired	-12.9729
Rand	-12.973
▁Kem	-12.973
▁refunding	-12.9731
▁promotional	-12.9736
late	-12.9736
▁undertake	-12.9738
expensive	-12.9739
▁brewer	-12.974
▁Franc	-12.974
▁delight	-12.9741
container	-12.9744
▁map	-12.9745
▁jetliner	-12.9747
▁Penney	-12.9747
▁swaps	-12.9747
▁Shop	-12.9749
lagg	-12.9755
▁Ad	-12.9756
▁cosmetics	-12.9756
▁Chap	-12.976
reported	-12.9763
spy	-12.9768
Bristol	-12.9769
▁alert	-12.9771
▁Hoffmann	-12.9773
▁Susan	-12.9775
▁Rice	-12.9777
▁girls	-12.9784
grave	-12.9788
82	-12.9789
lic	-12.979
▁Triangle	-12.9792
▁Circle	-12.9792
▁Political	-12.9793
▁disorder	-12.9793
▁dogs	-12.9794
NDON	-12.9794
seventh	-12.9802
ag	-12.9802
shy	-12.9806
-4	-12.9807
▁Bid	-12.9813
▁Wild	-12.9813
▁Reuter	-12.9815
▁characteristic	-12.9815
▁cheat	-12.9815
Laurent	-12.9816
▁rulings	-12.9817
▁Mont	-12.9818
ional	-12.9818
Marcus	-12.982
75,000	-12.9821
carry	-12.9822
▁soil	-12.9823
▁circulat	-12.9825
▁Arrow	-12.9826
throwing	-12.9827
▁Goldberg	-12.9828
▁sacrifice	-12.9835
▁fraction	-12.9835
roof	-12.9835
gauge	-12.9837
▁defer	-12.9838
intensive	-12.9842
riding	-12.9844
bac	-12.9851
▁Value	-12.9851
ough	-12.9852
▁Malaysia	-12.9855
▁Sham	-12.9858
roles	-12.9858
▁Reebok	-12.9861
▁historian	-12.9861
▁Clayton	-12.9861
▁CSX	-12.9861
▁ranges	-12.9862
▁selective	-12.9862
▁burst	-12.9862
whi	-12.9865
▁resemble	-12.987
Meyer	-12.9873
usse	-12.9874
▁parks	-12.988
sweet	-12.9881
▁Quaker	-12.9884
▁averaging	-12.9884
▁Madrid	-12.9884
pleasure	-12.9893
▁promis	-12.99
▁containers	-12.9902
backer	-12.9903
painted	-12.9903
▁Mars	-12.9906
▁Procter	-12.9907
▁pesticide	-12.9907
▁Indianapolis	-12.9907
ox	-12.9909
leased	-12.9913
seed	-12.9916
▁fluctuations	-12.9916
▁surround	-12.9916
▁Mario	-12.9923
logic	-12.9925
tery	-12.9927
▁Takeshita	-12.993
▁Children	-12.993
▁Nashville	-12.993
Wellcome	-12.993
▁Ra	-12.9934
February	-12.9939
▁organize	-12.9942
▁Wend	-12.9949
hog	-12.9951
▁reaffirm	-12.9953
▁microwave	-12.9953
parliamentar	-12.9958
▁races	-12.996
affected	-12.9966
▁doub	-12.9966
▁1996	-12.9967
bull	-12.9969
▁boxe	-12.9971
▁cure	-12.9974
diagnostic	-12.9976
▁Forstmann	-12.9976
▁ocean	-12.9976
breakfast	-12.9977
▁NSC	-12.9977
▁Terry	-12.9977
▁bunch	-12.9978
▁soften	-12.9979
▁Propert	-12.9985
5.50	-12.9985
▁Ri	-12.9985
club	-12.9995
▁Rio	-12.9998
pri	-12.9999
▁magic	-13
▁videocassette	-13
portrait	-13
▁Byrd	-13
nickel	-13
thick	-13.0001
▁wounded	-13.0003
nard	-13.0005
▁Owen	-13.0007
▁Jane	-13.0008
ub	-13.0008
governmental	-13.0014
live	-13.0015
▁Chamber	-13.0016
Nazi	-13.0017
▁outrage	-13.0018
▁Angola	-13.0018
▁Austria	-13.0018
▁Dre	-13.0019
▁Managua	-13.0023
▁spouse	-13.0023
▁Irvine	-13.0023
owners	-13.0025
9.50	-13.003
▁woe	-13.0034
▁upgraded	-13.004
▁CP	-13.0043
▁coins	-13.0046
▁Individual	-13.0046
▁appetite	-13.0046
▁revamp	-13.0046
▁Elliott	-13.0049
▁awful	-13.005
mour	-13.0051
▁2017	-13.0055
▁pursued	-13.0056
▁taxation	-13.0064
▁230	-13.0065
7.25	-13.0068
▁constraint	-13.007
▁Nothing	-13.007
▁Interior	-13.007
▁Fiat	-13.007
▁Reform	-13.0072
▁Censu	-13.0073
▁VW	-13.0073
▁hover	-13.0074
stroke	-13.0075
▁glut	-13.0078
▁expir	-13.0082
period	-13.0083
exile	-13.0084
▁Tuc	-13.0092
▁windfall	-13.0093
▁motive	-13.0093
▁realiz	-13.0094
soap	-13.0099
servic	-13.0102
▁Love	-13.0104
▁Kell	-13.0109
▁Dillon	-13.0117
fiduciary	-13.0117
▁grab	-13.0121
▁calculate	-13.0123
▁slim	-13.0123
▁Anheuser	-13.014
transit	-13.014
lerating	-13.0141
valve	-13.0142
▁debut	-13.0142
▁52-	-13.0145
ANC	-13.015
trap	-13.015
tron	-13.0158
▁Between	-13.0164
▁ESOP	-13.0164
▁jazz	-13.0164
▁Equitable	-13.0164
▁Louisville	-13.0164
▁ozone	-13.0165
▁Bancshare	-13.0165
▁MX	-13.0166
tric	-13.0175
tur	-13.0176
gang	-13.0178
okol	-13.0185
▁Hay	-13.0185
▁Armed	-13.0188
Mirror	-13.0188
tuition	-13.0188
▁nominal	-13.0188
labs	-13.0189
matching	-13.0189
McLe	-13.0189
▁Prior	-13.0189
▁tenants	-13.0196
▁Kev	-13.0198
bul	-13.0203
▁capitalize	-13.0206
▁contemporary	-13.0211
▁customs	-13.0211
▁priest	-13.0212
▁Thailand	-13.0212
▁Technical	-13.0216
▁lessen	-13.0216
Gene	-13.0218
▁Matthews	-13.022
▁briefing	-13.022
▁Options	-13.022
initiat	-13.0222
▁fend	-13.0224
ano	-13.0225
▁obscure	-13.0226
▁athletic	-13.0235
▁Newspaper	-13.0235
▁legend	-13.0236
warfare	-13.0236
▁Corona	-13.0237
▁trademark	-13.0239
NF	-13.0247
cher	-13.0248
sch	-13.0252
▁erupt	-13.0255
▁Po	-13.0256
▁ratios	-13.0256
tan	-13.0258
▁literature	-13.0259
▁literary	-13.0259
▁incline	-13.026
fabric	-13.0263
Lorenz	-13.0265
▁amnesty	-13.0268
▁devaluation	-13.0271
▁Sto	-13.0279
lawn	-13.028
▁prosperity	-13.0284
restrictive	-13.0285
View	-13.0287
owe	-13.0287
▁booster	-13.0287
operating	-13.0293
ef	-13.0293
▁bombing	-13.0301
6.50	-13.0304
Stalin	-13.0307
▁chronic	-13.0309
▁crush	-13.0311
cents	-13.0312
▁collector	-13.0313
figure	-13.0313
billion	-13.0315
tandstill	-13.0315
now	-13.0316
▁misstat	-13.0322
length	-13.0324
▁anxiet	-13.0331
▁Cadbury	-13.0331
▁Heavy	-13.0331
damaging	-13.0331
▁Coleco	-13.0332
▁Wars	-13.0339
Western	-13.034
ug	-13.0345
rents	-13.0345
▁component	-13.0348
fact	-13.0348
stamp	-13.0349
construction	-13.0351
▁partially	-13.0352
▁Tobacco	-13.0355
▁invitation	-13.0355
▁electoral	-13.0355
log	-13.0358
▁deeper	-13.0363
▁deter	-13.0364
train	-13.0364
▁performances	-13.0367
iron	-13.0371
industrial	-13.0374
▁passe	-13.0374
bash	-13.0374
▁objectives	-13.0376
hoe	-13.0376
Castro	-13.0379
▁separation	-13.038
▁dictate	-13.0381
ven	-13.0387
ante	-13.039
▁Had	-13.04
quo	-13.0402
▁videotape	-13.0404
▁Castle	-13.0406
▁labels	-13.0408
▁clerk	-13.0409
mut	-13.041
▁Saint	-13.0411
▁choos	-13.0414
▁sat	-13.0415
▁comprise	-13.0417
minicomputer	-13.0418
▁Tan	-13.0422
State	-13.0426
transplant	-13.0428
▁modifie	-13.0428
▁Fitz	-13.043
▁windows	-13.0432
ella	-13.0433
▁Mid	-13.0438
lad	-13.044
▁advis	-13.0441
▁Visa	-13.0449
▁triumph	-13.0452
▁Nigeria	-13.0452
▁Giant	-13.0452
▁Omni	-13.0452
▁commuter	-13.0453
theft	-13.0453
solicitation	-13.0457
▁Hi	-13.046
▁laugh	-13.0464
Sosn	-13.0467
▁entit	-13.0476
▁Hoechst	-13.0476
▁virtue	-13.0476
▁Placid	-13.0476
▁Montana	-13.0477
▁Perry	-13.0477
▁Fourth	-13.0478
▁embassy	-13.0478
▁crews	-13.048
from	-13.0484
film	-13.0485
inches	-13.0492
buy	-13.0493
▁enabl	-13.0494
▁refine	-13.0496
▁Sports	-13.0496
North	-13.0497
mell	-13.0499
▁Tyson	-13.0501
bster	-13.0503
▁bribe	-13.0508
ification	-13.0508
resources	-13.051
▁unload	-13.0524
execution	-13.0525
▁treasury	-13.0526
depression	-13.0526
▁Page	-13.0527
ika	-13.053
Price	-13.053
rand	-13.0535
ev	-13.0539
▁Metals	-13.0539
▁Anti	-13.054
▁Hein	-13.0549
▁loophole	-13.055
▁Gamble	-13.055
▁Coors	-13.0551
▁Order	-13.056
▁operational	-13.0564
rey	-13.0566
shine	-13.0571
incorporate	-13.0573
entitie	-13.0574
ige	-13.0574
▁MORTGAGE	-13.0575
▁interior	-13.0575
▁shelve	-13.0575
▁Tony	-13.0575
▁examples	-13.0578
▁workplace	-13.0578
▁Shu	-13.0589
taker	-13.0598
▁Along	-13.0598
▁Jaguar	-13.0599
▁Mazda	-13.0599
pat	-13.06
▁700,000	-13.06
uch	-13.0601
▁columnist	-13.0603
ny	-13.0608
▁breakdown	-13.0608
▁124	-13.0612
assembly	-13.0617
ino	-13.0623
▁frustrat	-13.0624
▁incredibl	-13.0624
▁slogan	-13.0624
▁800,000	-13.0625
fertiliz	-13.0625
▁Hoover	-13.0627
bell	-13.0629
▁associations	-13.063
▁couples	-13.0631
▁morale	-13.0634
Lu	-13.0634
▁Hal	-13.0643
▁sections	-13.0647
▁Wilmington	-13.0649
▁glasnost	-13.0649
▁description	-13.0649
2.75	-13.065
Wheat	-13.065
▁Duke	-13.0651
▁handsome	-13.0651
ez	-13.0654
4.25	-13.0657
▁passion	-13.0661
swap	-13.0662
burning	-13.0663
▁Front	-13.0673
▁Orlando	-13.0674
▁embargo	-13.0674
▁10.8	-13.0676
▁inflated	-13.0677
▁bureaucratic	-13.0678
staff	-13.0679
▁enhanced	-13.0682
400	-13.0686
mal	-13.0689
ja	-13.0692
fiction	-13.0697
Fleming	-13.0699
metropolitan	-13.0699
▁Norwegian	-13.0699
▁technician	-13.0699
▁bilateral	-13.0699
▁Conrail	-13.0699
▁Transport	-13.0699
▁Fried	-13.0701
▁disappeared	-13.0703
▁allowance	-13.0703
▁devise	-13.0704
▁boats	-13.0707
46	-13.0708
ific	-13.0711
publishing	-13.0717
▁Libya	-13.0717
han	-13.0718
▁oversight	-13.0724
uous	-13.0725
▁embarrassing	-13.0728
motivated	-13.0728
rolled	-13.0729
21	-13.073
▁Sand	-13.0735
liter	-13.0737
▁relate	-13.074
opens	-13.0741
atory	-13.0741
1.15	-13.0743
▁Plaza	-13.0749
▁brilliant	-13.075
▁inspect	-13.075
then	-13.0751
get	-13.0754
liner	-13.0756
▁dull	-13.0762
▁narrower	-13.0762
theon	-13.0767
lance	-13.0768
▁overlook	-13.0768
▁landscape	-13.0772
return	-13.0773
▁inherit	-13.0774
▁Section	-13.0774
▁Ramada	-13.0774
▁MITI	-13.0774
fancy	-13.0774
loved	-13.0774
▁CEO	-13.0775
tourist	-13.0775
▁Fi	-13.0776
dial	-13.0778
▁119	-13.078
▁Oh	-13.0781
▁forge	-13.0782
▁deteriorati	-13.0785
▁Palo	-13.0785
▁hanging	-13.0797
ec	-13.0797
▁pledg	-13.0799
▁spectacular	-13.0799
▁Noranda	-13.0799
▁BellSouth	-13.0799
▁Sharon	-13.08
▁colony	-13.0801
lom	-13.0802
roy	-13.0803
▁Gross	-13.0806
▁demonstrat	-13.0815
spec	-13.0818
▁PRIME	-13.0825
▁authorize	-13.0829
▁220	-13.083
-5	-13.0831
▁Val	-13.0837
bone	-13.084
▁peaked	-13.084
▁Nanc	-13.0843
Im	-13.0849
▁COMMERCIAL	-13.085
▁Hitachi	-13.085
recision	-13.085
▁privacy	-13.085
▁outnumber	-13.0851
▁desperate	-13.0864
▁interven	-13.0865
▁Bryan	-13.0867
▁salesmen	-13.0867
Co	-13.0871
▁notifi	-13.0873
▁Mack	-13.0875
acceleration	-13.0875
▁Buchanan	-13.0875
▁leisure	-13.0875
▁Harper	-13.0875
▁Manville	-13.0875
▁Winston	-13.0876
▁overture	-13.0879
communication	-13.088
boom	-13.0883
arriv	-13.0883
▁Read	-13.0885
Roth	-13.0889
greed	-13.0889
coat	-13.089
▁tables	-13.089
ves	-13.0893
▁Damon	-13.0894
▁Earth	-13.09
▁Matsushita	-13.09
▁abolish	-13.09
breast	-13.09
▁Mount	-13.09
▁Woolworth	-13.09
▁stagger	-13.0901
president	-13.0905
▁Rod	-13.0905
vin	-13.0908
relied	-13.0912
AR	-13.0915
54	-13.0919
serv	-13.0924
vy	-13.0924
tigious	-13.0926
▁comedy	-13.0927
▁Too	-13.0929
▁Joel	-13.093
OS	-13.0931
▁wishe	-13.0934
▁conversations	-13.0934
▁Film	-13.0936
▁greet	-13.0936
▁Unil	-13.0938
▁Fin	-13.0942
▁apartments	-13.0942
Mercury	-13.0952
▁decisive	-13.0952
▁swallow	-13.0952
merging	-13.0954
▁NL	-13.0954
▁Crown	-13.0963
prevailing	-13.0964
assisted	-13.0967
-20	-13.0969
relevant	-13.0977
▁recoup	-13.0977
Belzberg	-13.0977
▁Obvious	-13.0977
▁criteria	-13.0977
▁persuad	-13.0977
distant	-13.0977
▁BMW	-13.0978
road	-13.0982
▁forever	-13.0982
▁steer	-13.0985
▁amend	-13.0986
cop	-13.0987
▁characteriz	-13.0989
trol	-13.0989
imply	-13.0992
▁12,000	-13.0994
gar	-13.0998
▁Ali	-13.0999
ram	-13.0999
visual	-13.1001
▁pockets	-13.1001
handl	-13.1002
▁stockholder	-13.1003
▁INTER	-13.1003
▁Aluminum	-13.1003
▁balloon	-13.1003
▁vegetable	-13.1003
▁Exclud	-13.1003
lasting	-13.1004
▁felony	-13.1005
▁Night	-13.1005
agging	-13.1006
▁unauthorized	-13.1007
TO	-13.1008
secret	-13.1009
egg	-13.101
▁snow	-13.1012
▁Esse	-13.1015
shift	-13.1016
ju	-13.1017
▁satisfactor	-13.1021
ork	-13.1027
▁Squibb	-13.1029
▁clue	-13.1029
▁silence	-13.1029
▁Key	-13.1029
▁structures	-13.1034
▁depress	-13.1037
release	-13.1038
inspir	-13.1038
▁stag	-13.1048
▁maximize	-13.1051
▁Carlos	-13.1052
▁appointments	-13.1054
▁Cole	-13.1055
▁Cuomo	-13.1055
▁Graphic	-13.1055
▁Gannett	-13.1055
▁modernization	-13.1055
▁peaceful	-13.1055
▁Supermarket	-13.1057
gall	-13.1057
section	-13.1058
Estimated	-13.1063
wings	-13.107
▁breed	-13.107
▁terminate	-13.1072
▁Row	-13.1072
▁dying	-13.1076
alien	-13.1077
▁lobbyist	-13.108
Hugh	-13.108
▁identical	-13.108
▁Works	-13.1081
▁deployment	-13.1081
publicize	-13.1083
▁750,000	-13.1083
optical	-13.1084
sey	-13.1084
▁installment	-13.1087
3.25	-13.1088
▁Yo	-13.1095
▁provisional	-13.1101
ame	-13.1101
▁GROUP	-13.1106
termed	-13.1108
▁Genetic	-13.1109
▁emotion	-13.1109
▁tens	-13.1111
rent	-13.1118
▁Basic	-13.1131
Oldsmobile	-13.1132
▁Assurance	-13.1132
▁pizza	-13.1132
rambling	-13.1132
▁Joint	-13.1135
▁Lazard	-13.1139
block	-13.114
▁vow	-13.1141
mechanical	-13.1152
▁subs	-13.1152
plane	-13.1154
harbor	-13.1159
▁Memphis	-13.1159
▁PAPER	-13.1159
▁scramble	-13.1159
▁gilt	-13.1159
pear	-13.1162
loses	-13.1162
lining	-13.1163
frame	-13.1163
warhead	-13.1164
▁Peterson	-13.1165
▁Christie	-13.1165
▁foe	-13.1167
Base	-13.1171
ji	-13.1173
capitalist	-13.1176
▁Glen	-13.1177
General	-13.118
buck	-13.1181
▁territories	-13.1185
▁Rupert	-13.1185
▁PBS	-13.1185
▁Roper	-13.1186
▁exciting	-13.1187
nationally	-13.1191
walk	-13.1198
▁override	-13.1203
reservation	-13.1204
▁Russia	-13.1206
▁Enterprise	-13.1211
▁Initiative	-13.1211
▁Toledo	-13.1211
▁Textr	-13.1211
▁Beech	-13.1211
▁continuous	-13.1211
▁Bloom	-13.1211
▁Alcan	-13.1211
▁Discover	-13.1212
▁contention	-13.1214
▁timetable	-13.1215
▁isolated	-13.1215
▁Glenn	-13.1218
▁Banco	-13.1218
▁Ask	-13.1218
▁farms	-13.1219
tudies	-13.1223
modification	-13.1237
▁entrepreneurial	-13.1237
▁peasant	-13.1237
Lyons	-13.1237
▁Growth	-13.1238
▁GSA	-13.1238
Man	-13.124
▁Owners	-13.1241
▁Assistan	-13.1244
decent	-13.1244
ium	-13.1249
▁10.4	-13.125
▁casual	-13.1262
▁unacceptabl	-13.1264
suit	-13.1269
jury	-13.127
▁Zay	-13.1277
▁Rex	-13.1278
shopping	-13.1279
▁disastrous	-13.129
▁25-	-13.129
▁Ethic	-13.129
▁Country	-13.129
ische	-13.1291
▁Legal	-13.1291
▁Brent	-13.1291
▁deterren	-13.1299
transfer	-13.13
dler	-13.1308
▁Ja	-13.131
▁chaos	-13.1317
▁Vernon	-13.1317
chairmen	-13.1318
nes	-13.1318
▁ancient	-13.1319
▁spokes	-13.132
▁dealership	-13.1321
▁Sure	-13.1323
PA	-13.1327
▁Nine	-13.1327
clot	-13.1329
lag	-13.1331
▁surgeon	-13.1336
Jacques	-13.1337
thin	-13.1337
atisfaction	-13.1343
▁profound	-13.1344
▁crackdown	-13.1345
▁Rule	-13.1347
▁Neil	-13.1347
▁1999	-13.135
▁Stop	-13.1351
▁wholesaler	-13.1363
▁14-	-13.1366
volumes	-13.137
▁Champion	-13.137
▁intensifie	-13.137
▁forum	-13.1374
ade	-13.1375
▁afterward	-13.1376
▁Estate	-13.1376
complaining	-13.1376
9.25	-13.1377
delayed	-13.1379
ERS	-13.1381
aki	-13.1381
▁Down	-13.1385
▁Scher	-13.1391
Yankee	-13.1392
tra	-13.1393
▁Bowl	-13.1394
tab	-13.1396
anchor	-13.1397
▁mysteri	-13.1397
▁Polys	-13.1398
affairs	-13.1401
CIO	-13.1402
access	-13.1402
monitor	-13.1403
mi	-13.1403
feld	-13.1403
▁Nu	-13.1403
▁dispose	-13.1406
▁snapp	-13.1406
▁17.5	-13.1406
rup	-13.1409
plex	-13.1412
Ti	-13.1412
▁defects	-13.1412
▁260	-13.1414
leman	-13.1416
explosive	-13.1419
hur	-13.142
emergenc	-13.1421
▁Manuel	-13.1423
▁constituenc	-13.1423
malpractice	-13.1423
▁Gilbert	-13.1423
▁funny	-13.1424
▁flurr	-13.1424
Goodrich	-13.1424
▁extract	-13.1424
▁Koch	-13.1425
In	-13.1426
eighth	-13.1427
1.05	-13.1427
nick	-13.1433
▁regret	-13.1434
rushed	-13.1437
▁gesture	-13.1439
tour	-13.144
▁insufficient	-13.1445
universal	-13.145
infringement	-13.1451
▁flagship	-13.1451
▁Powell	-13.1451
wire	-13.1465
▁contemplat	-13.1469
organiz	-13.147
desirable	-13.1477
▁AFL	-13.1477
71	-13.1478
▁Oakland	-13.1478
▁Benson	-13.1478
▁median	-13.1489
▁scrapp	-13.1489
▁maneuver	-13.1491
▁upscale	-13.1498
▁characterize	-13.1498
▁lands	-13.15
bie	-13.1501
Turkish	-13.1504
▁uranium	-13.1504
▁Acceptance	-13.1504
▁Keith	-13.1504
▁Empire	-13.1505
▁Records	-13.1506
1985	-13.1506
▁associat	-13.1507
equivalent	-13.1508
German	-13.1528
review	-13.1531
▁Searle	-13.1531
▁refrain	-13.1532
▁capitalism	-13.1541
▁dedicated	-13.1541
▁wines	-13.1545
othy	-13.155
political	-13.1551
ians	-13.1552
▁naturally	-13.1557
▁GATT	-13.1559
▁delicate	-13.1559
▁suspicious	-13.1559
lucky	-13.1561
▁Thing	-13.1562
Pierre	-13.1563
Ellis	-13.1564
▁headache	-13.1565
hurst	-13.1566
sheet	-13.1569
▁contributor	-13.1572
▁10.2	-13.1574
NCR	-13.1577
▁marketed	-13.1579
▁automat	-13.1583
ane	-13.1583
▁Wyoming	-13.1586
▁Wellington	-13.1586
charge	-13.1589
▁Alto	-13.159
▁upturn	-13.1591
▁reader	-13.1598
Ls	-13.1598
▁Underwriter	-13.1598
▁Woods	-13.1605
Say	-13.1606
1.80	-13.1607
vis	-13.1607
gu	-13.1612
▁Coffee	-13.1613
▁referendum	-13.1613
▁Mercedes	-13.1613
▁Soon	-13.1614
ordered	-13.1615
,900	-13.1618
▁Rowe	-13.1619
▁beach	-13.1619
▁210	-13.1619
▁heightened	-13.1624
▁drafted	-13.1625
▁maturit	-13.1625
▁dean	-13.1627
left	-13.1634
▁disagreed	-13.1637
▁describ	-13.1638
▁pregnan	-13.164
▁fool	-13.1641
▁Garcia	-13.1641
▁Juan	-13.1641
▁dialogue	-13.1641
-6	-13.1643
▁Gre	-13.1646
▁streamline	-13.1654
bri	-13.1655
▁wiped	-13.1655
Diet	-13.1656
▁Case	-13.1657
▁emissions	-13.166
▁erode	-13.1661
PI	-13.1663
▁Cellular	-13.1668
▁approving	-13.1668
▁summary	-13.1668
employ	-13.1669
▁Higher	-13.1673
▁eggs	-13.1675
pen	-13.1677
▁charitabl	-13.168
▁275	-13.1687
Aid	-13.1688
▁Benj	-13.1689
▁Ever	-13.169
▁facilitate	-13.169
arose	-13.1691
▁switche	-13.1691
▁Win	-13.1692
Depression	-13.1696
Tribune	-13.1696
eye	-13.1696
psychology	-13.1696
▁Specific	-13.1696
▁scatter	-13.1696
▁Katz	-13.1696
borough	-13.1696
▁Linda	-13.1697
vers	-13.1698
▁Vincent	-13.1699
ural	-13.1699
▁dissolve	-13.1702
▁exaggerated	-13.1703
haus	-13.1703
▁Bel	-13.1704
▁1/2-	-13.1708
▁14.5	-13.1718
▁Hercule	-13.1723
▁Spencer	-13.1723
▁Shiite	-13.1723
Vietnamese	-13.1723
▁supervise	-13.1724
▁Hunts	-13.1725
note	-13.1726
▁Baby	-13.1728
beam	-13.1729
▁Sal	-13.1731
▁pools	-13.1735
▁Asher	-13.1736
▁varie	-13.174
confidence	-13.1741
▁Sher	-13.1742
▁origin	-13.1746
abuse	-13.175
Cliffs	-13.1751
▁Dalkon	-13.1751
▁silent	-13.1751
▁Student	-13.1751
▁faculty	-13.1751
▁1964	-13.1752
▁nonperforming	-13.1752
jo	-13.1754
▁mineral	-13.1756
▁celebration	-13.1756
▁10.6	-13.176
▁Kane	-13.1762
▁grace	-13.1764
alone	-13.1764
fin	-13.1766
▁professors	-13.1771
integration	-13.1771
maintenance	-13.1773
▁Rover	-13.1774
subtle	-13.1775
▁depict	-13.1776
▁Travelers	-13.1779
PL	-13.178
▁Southwestern	-13.178
▁communicate	-13.1783
medic	-13.1783
fits	-13.1786
deficit	-13.1787
5.75	-13.1787
wort	-13.1791
▁Quin	-13.1794
yet	-13.1796
▁reviv	-13.1797
▁Manager	-13.1799
ico	-13.1804
concession	-13.1804
auster	-13.1804
▁FASB	-13.1807
▁unidentifi	-13.1807
▁737	-13.1807
bath	-13.1809
▁compos	-13.1812
▁disruption	-13.1814
tz	-13.1816
OR	-13.1821
▁Hydro	-13.1834
fr	-13.1834
▁Senior	-13.1835
chang	-13.1836
▁Bert	-13.1836
-11	-13.1844
▁comic	-13.1846
surprises	-13.1858
ordering	-13.1858
▁exceptional	-13.1859
▁Broad	-13.1862
▁intensify	-13.1862
▁Kellogg	-13.1863
greenmail	-13.1863
settlement	-13.1864
▁Teles	-13.1865
solved	-13.1873
▁Arts	-13.1874
unity	-13.1878
sta	-13.1878
▁Ste	-13.1878
4.75	-13.1884
▁devis	-13.1885
▁heels	-13.1887
▁Eli	-13.1888
eneficial	-13.189
▁Tulsa	-13.1891
minster	-13.1891
▁peso	-13.1891
▁convey	-13.1892
motion	-13.1892
ient	-13.1893
▁arise	-13.1896
stimulat	-13.1899
Plus	-13.19
▁Turn	-13.1902
play	-13.1905
▁singing	-13.191
labor	-13.1911
▁Gear	-13.1914
▁126	-13.1916
generate	-13.1917
▁Restaurant	-13.1919
▁Would	-13.1919
▁prudent	-13.1919
▁erosion	-13.1919
▁propaganda	-13.1919
▁redesign	-13.1919
▁Father	-13.192
▁Tam	-13.1922
brai	-13.1923
▁Fish	-13.193
IES	-13.1936
residence	-13.1936
▁arrang	-13.1941
▁distinct	-13.1944
OK	-13.1945
▁Institutional	-13.1947
▁Ortega	-13.1947
▁manipulate	-13.1947
▁puzzle	-13.1947
▁Armstrong	-13.1947
▁proprietary	-13.1947
▁NFL	-13.1948
▁Banca	-13.1951
choice	-13.1953
▁favorab	-13.1953
▁16-	-13.1954
pra	-13.1956
▁compelling	-13.1958
fence	-13.1959
ai	-13.1962
▁linking	-13.1965
▁appoint	-13.1969
▁Ironic	-13.1972
▁1965	-13.1974
hunter	-13.1975
bald	-13.1976
▁Kinnear	-13.1976
▁doom	-13.1976
invest	-13.1977
▁declaration	-13.1977
▁dual	-13.1981
delegate	-13.1982
burg	-13.1983
lacked	-13.1984
▁lean	-13.1985
▁aspir	-13.1992
▁founding	-13.1993
Term	-13.1993
▁Pakistani	-13.1995
▁gamble	-13.1996
▁swapp	-13.2001
▁receivables	-13.2002
cushion	-13.2004
▁Marriott	-13.2004
▁Sarney	-13.2004
▁Agreement	-13.2004
▁insight	-13.2004
protective	-13.2006
rage	-13.2007
▁Bor	-13.201
▁surrender	-13.201
1.70	-13.2018
▁10.7	-13.2022
▁Scient	-13.2023
leave	-13.2027
▁laborator	-13.2029
▁modify	-13.2032
▁Marwick	-13.2032
denomination	-13.2032
▁battl	-13.2033
▁Gaza	-13.2034
▁ABM	-13.2034
raw	-13.2034
▁royalt	-13.2046
▁spurt	-13.2048
list	-13.2049
AIDS	-13.2056
▁supervisi	-13.2058
▁Cambodia	-13.2061
▁Concern	-13.2061
ecrecy	-13.2061
tunnel	-13.2061
▁embarrassment	-13.2061
▁birthday	-13.2064
▁portable	-13.2064
▁Multi	-13.2067
▁123	-13.2073
▁Includ	-13.208
▁Er	-13.2082
erman	-13.2083
▁helpful	-13.2086
▁Rica	-13.2089
Hungarian	-13.2089
▁barometer	-13.2089
Domestic	-13.209
Sound	-13.209
child	-13.2091
▁sporting	-13.21
blown	-13.21
▁inform	-13.2103
raiser	-13.2104
▁imagin	-13.2104
▁cater	-13.2105
steering	-13.2111
▁145	-13.2111
▁combin	-13.2115
▁Kr	-13.2117
90,000	-13.2117
bankrupt	-13.2118
▁Theodore	-13.2118
▁excitement	-13.2118
▁magnitude	-13.2118
▁relinquish	-13.2118
▁Mitsui	-13.2118
▁correspondent	-13.2118
▁demographic	-13.2118
▁Seidman	-13.2118
measurement	-13.2119
▁brewing	-13.2123
volt	-13.2131
▁Dis	-13.2134
▁bottler	-13.2136
middle	-13.214
▁technically	-13.2145
▁interfere	-13.2145
supervis	-13.2147
scratch	-13.2147
▁Providence	-13.2147
▁Nobel	-13.2147
▁manual	-13.2147
mode	-13.2147
▁tolerate	-13.2149
america	-13.215
▁hardest	-13.2153
▁sorts	-13.2155
slaughter	-13.2157
Resources	-13.2161
▁enforc	-13.2162
dealing	-13.2167
ester	-13.2172
distinguish	-13.2173
▁Sacramento	-13.2176
▁dispatch	-13.2178
▁modernize	-13.2178
▁Carson	-13.2179
▁racis	-13.2182
cal	-13.2187
dies	-13.2187
▁successes	-13.2191
lash	-13.2195
draft	-13.2202
-19	-13.2203
▁Additional	-13.2205
▁Beth	-13.221
▁drugstore	-13.2211
bypass	-13.2216
▁notify	-13.2219
▁prob	-13.2222
operate	-13.2224
▁contracted	-13.2228
els	-13.2231
▁Ernst	-13.2234
▁comptroller	-13.2234
300	-13.2235
▁appointee	-13.2236
ens	-13.2243
magnetic	-13.2245
eff	-13.2245
▁update	-13.2246
▁Anne	-13.2248
summer	-13.2251
spect	-13.2253
▁Indians	-13.226
gap	-13.226
cation	-13.226
▁Bu	-13.2262
liance	-13.2262
▁Emery	-13.2263
Yield	-13.2263
▁mystery	-13.2263
Challenger	-13.2263
von	-13.2268
▁executed	-13.2272
▁pois	-13.2274
Peters	-13.2275
▁incorporat	-13.2278
▁Fine	-13.228
tract	-13.2281
▁Schering	-13.2282
▁undercut	-13.2283
End	-13.2287
▁Phil	-13.2288
strike	-13.2288
Net	-13.2291
▁banning	-13.2292
▁Fluor	-13.2293
▁shak	-13.2294
▁Flight	-13.2294
guided	-13.2298
▁128	-13.2299
▁observ	-13.23
▁generations	-13.2302
1.20	-13.2303
patient	-13.2307
▁Wig	-13.231
▁nominat	-13.231
▁bump	-13.231
machine	-13.2312
brush	-13.2321
▁album	-13.2322
interference	-13.2322
▁Scotland	-13.2322
▁Enron	-13.2322
filter	-13.2322
▁Hale	-13.2326
▁Fink	-13.2331
▁Ram	-13.2331
▁Grow	-13.2332
▁carbon	-13.234
▁overrun	-13.234
tumble	-13.2346
▁periodical	-13.2346
complicate	-13.235
▁Peace	-13.2351
crunch	-13.2351
▁Colgate	-13.2352
▁Parib	-13.2352
▁Sherman	-13.2352
specially	-13.2352
▁necessit	-13.2355
▁noise	-13.2359
▁spreads	-13.2359
▁Look	-13.236
bor	-13.2361
▁Guid	-13.2365
knee	-13.2372
Dutch	-13.2376
affluent	-13.2381
aterpillar	-13.2381
▁Eaton	-13.2381
▁Odyssey	-13.2381
▁104	-13.2382
320	-13.2385
9.95	-13.2391
national	-13.2395
▁valu	-13.2398
▁confess	-13.2401
▁IS	-13.2402
eria	-13.2403
▁Hoffman	-13.2406
liver	-13.2409
skirt	-13.241
▁1-2-3	-13.241
▁Lebanese	-13.241
▁festival	-13.241
Weather	-13.241
▁glad	-13.241
stringent	-13.2411
▁Deput	-13.2411
▁Rick	-13.2413
▁mechanic	-13.2418
race	-13.242
Gar	-13.2421
endency	-13.2423
▁Jefferson	-13.2423
▁Personal	-13.2428
▁Za	-13.2429
1.60	-13.2437
dressed	-13.2438
lifting	-13.2439
▁Ke	-13.2439
rigg	-13.2439
▁signature	-13.244
▁stunned	-13.244
▁fled	-13.244
▁Beazer	-13.244
▁conferee	-13.244
intelligence	-13.2443
Mos	-13.2445
▁Actual	-13.2451
issu	-13.2452
orious	-13.2456
▁myth	-13.2456
▁Low	-13.2457
▁minimize	-13.2458
network	-13.2459
▁rational	-13.2461
stick	-13.2462
▁Stark	-13.2465
▁guilt	-13.2465
travel	-13.2466
▁Maxi	-13.2466
EN	-13.2467
collision	-13.247
communism	-13.247
bracket	-13.247
▁legac	-13.247
▁teeth	-13.247
receive	-13.2471
▁livestock	-13.2472
▁11.4	-13.2473
rimming	-13.2475
kim	-13.2475
AG	-13.2489
▁visitor	-13.2489
colored	-13.2489
mere	-13.249
admissi	-13.2491
▁reluctanc	-13.2499
▁disabled	-13.2499
▁Intermediate	-13.25
▁reorganize	-13.25
▁Keefe	-13.2501
▁orchestra	-13.2504
slice	-13.2508
brake	-13.2509
measur	-13.2513
1.35	-13.2513
▁Gi	-13.252
1.85	-13.252
▁Harrison	-13.2521
vest	-13.2524
▁poses	-13.2525
AP	-13.2525
▁Support	-13.2529
escort	-13.2529
certifi	-13.2529
crystal	-13.2529
▁accusation	-13.253
▁Prebon	-13.2531
▁diesel	-13.2532
certain	-13.2537
gr	-13.2543
▁organizer	-13.2543
▁mistaken	-13.2543
graphic	-13.2548
▁155	-13.2549
report	-13.2549
▁songs	-13.2559
▁absurd	-13.2559
dent	-13.2562
weighted	-13.2564
▁Kent	-13.2566
▁pits	-13.2571
critical	-13.2576
▁bite	-13.2576
▁delaying	-13.2577
nail	-13.2579
▁Sub	-13.2579
▁Pizz	-13.2583
▁Inflation	-13.259
▁safeguard	-13.259
funct	-13.2591
1.95	-13.2598
ratification	-13.2611
▁stir	-13.262
▁Sierra	-13.262
▁jitter	-13.262
▁Freedom	-13.262
▁continuation	-13.262
▁Hooker	-13.262
▁revival	-13.262
▁Theater	-13.2621
▁Cy	-13.2621
▁keen	-13.2622
▁Gut	-13.2624
▁freed	-13.2626
fi	-13.2626
▁165	-13.2627
▁oblig	-13.2629
Town	-13.2629
▁pause	-13.2632
▁undergo	-13.2642
▁ruin	-13.2645
▁Pioneer	-13.265
▁multibillion	-13.265
hungry	-13.265
corn	-13.266
▁courtroom	-13.2661
▁erod	-13.2674
event	-13.2679
▁Speak	-13.268
▁Superior	-13.2681
ya	-13.2681
▁Telex	-13.2681
Load	-13.2682
▁stolen	-13.2682
letter	-13.2683
▁levie	-13.2689
deck	-13.269
▁Cu	-13.2692
▁spawn	-13.2695
zi	-13.27
▁autos	-13.2701
rus	-13.2706
▁minerals	-13.2707
▁Ogilv	-13.2711
jacket	-13.2711
▁psychologist	-13.2711
foul	-13.2711
unaro	-13.2711
▁Antar	-13.2712
defendant	-13.2712
pur	-13.2712
lift	-13.2715
centered	-13.2721
▁prohibition	-13.2722
IM	-13.2724
▁walkout	-13.2726
▁Representatives	-13.274
▁Ginnie	-13.2742
▁Prospect	-13.2742
▁Saunder	-13.2742
▁ideology	-13.2742
▁Banque	-13.2742
turf	-13.2742
flavor	-13.2744
▁draws	-13.2748
▁reply	-13.2748
▁Camp	-13.2749
▁antibod	-13.2751
ET	-13.2751
▁Shoe	-13.2754
▁45-	-13.2756
▁commissioners	-13.2757
▁Did	-13.2759
330	-13.276
▁seize	-13.276
tout	-13.2761
▁Shaw	-13.2761
1.06	-13.2761
coating	-13.2762
llies	-13.2763
▁Mu	-13.2765
▁holes	-13.2766
▁Leu	-13.277
▁Pritzker	-13.2772
▁Borden	-13.2772
▁Remic	-13.2772
cho	-13.2774
▁survivor	-13.2775
▁Cit	-13.2781
derived	-13.2781
▁waive	-13.2781
▁Coal	-13.2782
▁Marion	-13.2784
ology	-13.2785
▁1.375	-13.279
ello	-13.2791
▁Summ	-13.2793
biolog	-13.2794
▁Cru	-13.2794
troubled	-13.2796
estro	-13.2796
fighter	-13.2799
flower	-13.2802
Ridder	-13.2803
▁Baxter	-13.2803
▁centuries	-13.2803
▁Mulher	-13.2803
indebted	-13.2803
▁enemi	-13.2805
Reg	-13.2809
make	-13.2811
zing	-13.2821
.30	-13.2824
▁careers	-13.2825
Ray	-13.2829
▁Supply	-13.2834
▁charity	-13.2834
▁Ashton	-13.2834
leather	-13.2834
runner	-13.2841
Globe	-13.2842
ang	-13.2842
ponents	-13.2843
▁trash	-13.2843
▁Alcoa	-13.2843
▁spirits	-13.2845
oxy	-13.2847
watchers	-13.2853
▁Live	-13.2855
MI	-13.2859
▁Helen	-13.2859
wit	-13.286
▁fad	-13.2863
▁farming	-13.2864
cassette	-13.2865
▁Moines	-13.2865
piano	-13.2865
-1970	-13.2865
▁framework	-13.2865
▁Railroad	-13.2865
▁Triton	-13.2866
Egyptian	-13.2867
▁Todd	-13.2867
▁notable	-13.2867
▁unpaid	-13.2868
inched	-13.2871
Queen	-13.2877
ua	-13.2881
med	-13.2884
stating	-13.2885
▁Bi	-13.2887
500	-13.2888
creat	-13.2888
session	-13.2891
600	-13.2892
▁Anchor	-13.2896
▁squeezed	-13.2896
▁Jonathan	-13.2896
▁fragment	-13.2896
▁Forbes	-13.2896
▁Lang	-13.2896
▁Barnett	-13.2898
▁Clore	-13.2898
▁Clara	-13.2898
dating	-13.2901
hol	-13.2904
▁proxi	-13.2905
oda	-13.2905
NE	-13.2907
▁outlin	-13.2909
▁aggregate	-13.291
Homes	-13.2912
pping	-13.2912
▁Lud	-13.2912
pha	-13.2912
cart	-13.2922
▁guards	-13.2926
▁courage	-13.2927
▁invoke	-13.2927
▁captain	-13.2927
▁Maj	-13.2929
▁grim	-13.293
▁Industri	-13.2934
▁nerve	-13.2936
▁implied	-13.2937
▁jokes	-13.2938
ration	-13.295
rail	-13.2957
▁comparative	-13.2959
▁lottery	-13.296
▁curbs	-13.296
3,500	-13.2963
each	-13.2963
medal	-13.2964
ht	-13.2965
▁faction	-13.2966
eers	-13.2966
▁mainland	-13.2967
▁10.1	-13.2971
▁scared	-13.2973
▁Cost	-13.2973
aside	-13.2974
appraisal	-13.2983
▁absent	-13.2989
▁Malcolm	-13.299
▁Pfi	-13.2993
▁Which	-13.2994
▁sticking	-13.2999
▁Sharp	-13.3001
▁Greenberg	-13.3004
smuggl	-13.3009
▁echo	-13.301
▁Horn	-13.301
heavy	-13.3013
-16	-13.3021
▁contingenc	-13.3021
▁inappropriate	-13.3021
▁Medicine	-13.3021
▁Cash	-13.3021
▁Schnei	-13.3021
▁Gra	-13.3021
▁Blair	-13.3027
rom	-13.3027
TA	-13.3032
▁prais	-13.3033
▁Neo	-13.3033
▁Kel	-13.3036
▁consequence	-13.3037
welfare	-13.304
▁reinstate	-13.3043
vale	-13.3045
change	-13.3046
iff	-13.3048
▁deposition	-13.3052
▁Legislature	-13.3053
▁syndicated	-13.3054
▁Wind	-13.3054
▁Gregory	-13.3054
▁Takeover	-13.3055
▁Revolution	-13.3055
may	-13.3055
▁shortfall	-13.3055
Carlo	-13.3057
lit	-13.3057
▁179	-13.3063
▁Ottawa	-13.3067
▁declar	-13.3069
▁Sh	-13.3074
▁Less	-13.3074
dze	-13.3075
▁reads	-13.3081
chocolate	-13.3084
dominance	-13.3084
▁intelligent	-13.3084
▁literally	-13.3085
▁14.9	-13.3086
▁televised	-13.3086
▁18.5	-13.3088
glove	-13.3089
▁CN	-13.3095
economic	-13.3096
▁Lowe	-13.3099
▁Crow	-13.3102
▁Deer	-13.3102
▁midday	-13.3106
▁Bull	-13.3107
finishing	-13.3107
park	-13.3108
0.25	-13.3109
og	-13.3109
promotion	-13.311
▁inefficient	-13.3111
▁1940	-13.3112
▁multiples	-13.3112
▁appearances	-13.3113
ennial	-13.3115
▁Gibraltar	-13.3116
▁Honduras	-13.3116
▁Purolator	-13.3116
▁Regard	-13.3116
▁threshold	-13.3116
lan	-13.3117
tailor	-13.3118
▁overly	-13.3118
mileage	-13.3118
▁EMS	-13.3119
News	-13.3119
▁Guarantee	-13.3123
before	-13.3126
drilling	-13.3126
▁outlaw	-13.3127
▁punch	-13.3127
tal	-13.313
▁entertain	-13.3132
▁Inns	-13.3134
camp	-13.3137
▁tonight	-13.314
talk	-13.314
▁Yugoslavia	-13.3143
62	-13.3146
▁16.5	-13.3146
▁swimming	-13.3148
▁MasterCard	-13.3148
▁dismantle	-13.3148
▁independently	-13.3148
▁acreage	-13.3148
▁Goldstein	-13.3148
▁747	-13.3153
▁conditional	-13.3154
cca	-13.3154
▁victor	-13.3158
▁11.3	-13.3158
▁280	-13.316
▁Dar	-13.3161
▁Matt	-13.3165
▁Algeria	-13.3165
▁symbolic	-13.3175
horizon	-13.3177
▁Fre	-13.3177
▁106	-13.3179
sville	-13.3179
▁bullet	-13.3179
▁electorate	-13.318
▁suicide	-13.318
▁excise	-13.318
▁Desert	-13.318
launder	-13.318
brown	-13.318
▁traged	-13.3182
▁Gund	-13.3183
800	-13.3185
▁Joy	-13.3186
▁stripped	-13.3187
▁Whar	-13.3188
▁Scientist	-13.319
▁cartoon	-13.3191
▁dubb	-13.3193
▁Springs	-13.3195
▁symptoms	-13.3195
▁Ph	-13.3196
around	-13.3197
▁inspire	-13.3199
▁shout	-13.3201
ST	-13.3202
▁implicat	-13.3204
▁Levin	-13.3205
cer	-13.3206
▁marking	-13.3207
decliner	-13.3209
▁weighing	-13.3209
awareness	-13.3212
▁Lomas	-13.3212
▁Abraham	-13.3212
▁Peruvian	-13.3212
▁Artists	-13.3212
ceiling	-13.3214
▁Bowen	-13.3214
cil	-13.3214
eyer	-13.3214
opinion	-13.3215
tter	-13.3217
▁probable	-13.3219
▁complement	-13.3219
shorten	-13.3219
▁Gib	-13.322
mor	-13.3224
▁disturbing	-13.3229
▁Curt	-13.3232
airline	-13.3237
▁Aeronautic	-13.3238
bent	-13.3241
mac	-13.3241
▁Ferruzzi	-13.3244
▁Stealth	-13.3244
▁ammunition	-13.3244
▁unsettl	-13.3244
▁vacuum	-13.3244
▁spree	-13.3244
▁Yu	-13.3244
stack	-13.3245
▁discriminate	-13.3245
▁Barnes	-13.3245
▁Global	-13.3245
▁Neb	-13.3245
Israel	-13.3246
▁MO	-13.325
warrant	-13.3253
▁omitt	-13.3256
▁lament	-13.3256
▁Micron	-13.3256
antic	-13.3257
cooking	-13.3262
▁Richards	-13.3272
▁Memor	-13.3272
lace	-13.3273
▁reasonabl	-13.3276
proving	-13.3276
▁Sens	-13.3276
evasion	-13.3276
▁ACLU	-13.3276
urring	-13.3276
Deaver	-13.3276
▁AFG	-13.3276
▁implementation	-13.3277
▁deliberation	-13.3277
▁Lakes	-13.3283
publish	-13.3291
▁Gu	-13.3291
▁True	-13.3293
▁spott	-13.3293
angle	-13.3293
Reagan	-13.3299
▁devote	-13.3306
▁knocked	-13.3308
eyond	-13.3308
▁Jenkins	-13.3309
▁Snyder	-13.3309
▁memorandum	-13.3309
▁textbook	-13.3309
▁Bresser	-13.3309
▁Volvo	-13.3309
▁Oxford	-13.3309
▁desktop	-13.3309
▁federation	-13.3309
announce	-13.331
▁landmark	-13.3313
▁scholars	-13.3314
▁Drew	-13.3315
▁Colombian	-13.3317
▁1962	-13.3318
adjustment	-13.3319
▁850	-13.3326
▁Robin	-13.3328
▁Shin	-13.3329
▁horses	-13.3335
Werk	-13.3338
▁Birmingham	-13.3341
▁Suzuki	-13.3341
▁engaging	-13.3341
▁unemploy	-13.3342
stine	-13.3342
▁theories	-13.3342
▁booking	-13.3342
▁Hess	-13.3343
destination	-13.3344
counsel	-13.3346
▁Veni	-13.3346
tapped	-13.3347
EW	-13.335
▁warranty	-13.335
▁soul	-13.3353
lam	-13.3356
haven	-13.3356
organized	-13.3356
▁unsol	-13.336
fabricat	-13.3365
▁Jon	-13.3366
▁Lower	-13.3371
▁Better	-13.3374
▁payoff	-13.3375
mortal	-13.3376
tilt	-13.3378
▁candy	-13.338
▁succession	-13.338
▁scant	-13.3393
▁accumulate	-13.3396
69	-13.34
▁discouraged	-13.3402
merchandising	-13.3406
▁Carnegie	-13.3406
▁enjoin	-13.3406
▁Lexington	-13.3406
▁Harbor	-13.3406
▁theoretical	-13.3406
▁affirmative	-13.3406
▁Retirement	-13.3406
▁Shoreham	-13.3406
▁hormon	-13.3407
▁shipyard	-13.3407
▁realignment	-13.3407
▁IU	-13.3407
▁Road	-13.3408
▁Kenner	-13.3408
▁photographs	-13.3409
bad	-13.3409
▁Quant	-13.341
▁royalty	-13.3411
▁accomplishment	-13.3414
helm	-13.3418
butter	-13.3419
▁Mi	-13.3435
▁13.6	-13.3438
▁Allan	-13.3438
accustom	-13.3439
▁McKesson	-13.3439
▁Twenty	-13.3439
▁Minstar	-13.3439
▁Taiwanese	-13.3439
bedroom	-13.344
▁jeopardize	-13.3441
ltenberg	-13.3445
brook	-13.3446
▁185	-13.3447
▁meals	-13.3449
▁frank	-13.3456
▁Box	-13.3457
▁inexpensive	-13.3459
▁Roll	-13.3461
▁Jacob	-13.3465
▁Schmidt	-13.3472
▁Pension	-13.3472
▁insert	-13.3473
▁tourism	-13.3473
▁Phelps	-13.3474
three	-13.3479
ready	-13.3486
▁Casualt	-13.3486
▁Ap	-13.3487
1.65	-13.3487
▁Bro	-13.3489
▁Zia	-13.3489
turned	-13.3489
▁nights	-13.3491
▁Bros	-13.3492
▁explod	-13.3497
music	-13.3498
discharge	-13.3499
▁airliner	-13.3499
▁Islands	-13.3502
lake	-13.3503
ego	-13.3504
bribery	-13.3505
gin	-13.3506
▁spate	-13.3506
agers	-13.3508
▁subway	-13.3509
▁uneas	-13.351
Mail	-13.3512
▁impend	-13.3512
sign	-13.3514
▁crown	-13.3518
BI	-13.3519
hot	-13.352
Miller	-13.3521
▁15.5	-13.3524
Design	-13.3524
ou	-13.3528
▁materialize	-13.3531
▁AS	-13.3532
ola	-13.3532
powerful	-13.3535
▁Pace	-13.3535
▁Bailey	-13.3538
▁Currency	-13.3538
▁Vatican	-13.3538
▁lavish	-13.3538
▁Minorco	-13.3538
▁Demand	-13.3539
▁Burton	-13.354
chemicals	-13.3542
ok	-13.3543
erry	-13.3544
hawk	-13.3544
Jet	-13.3545
▁explode	-13.3546
blood	-13.3547
ei	-13.3553
plug	-13.3563
▁325	-13.3563
▁endure	-13.3568
bench	-13.3568
▁Mun	-13.3568
▁corrupt	-13.3571
friction	-13.3571
▁jeans	-13.3571
▁retroactive	-13.3571
ardo	-13.3571
▁Half	-13.3572
▁safer	-13.3573
▁Stor	-13.3574
▁Haiti	-13.3576
Cen	-13.3582
▁colors	-13.3589
1.90	-13.3591
nalytical	-13.3592
▁lecture	-13.3592
▁relation	-13.3594
▁Lin	-13.3599
merger	-13.3604
rings	-13.3604
▁lighting	-13.3605
▁Babbitt	-13.3605
▁chancellor	-13.3605
▁covenant	-13.3605
▁Hopkins	-13.3605
▁Corporation	-13.3605
▁pessimistic	-13.3605
Brien	-13.3608
▁pronounc	-13.3609
constructive	-13.3611
▁Stud	-13.3618
▁1920	-13.362
cow	-13.3621
▁Need	-13.3621
recent	-13.3622
picture	-13.3629
Boy	-13.3634
▁mailed	-13.3634
environmentalist	-13.3635
Luxembourg	-13.3638
best	-13.3639
▁cogeneration	-13.364
▁automate	-13.3643
▁seconds	-13.365
▁Stephens	-13.3652
tally	-13.3653
▁Ames	-13.3654
▁Alaskan	-13.3657
contain	-13.3666
statement	-13.3667
▁instinct	-13.3672
▁accurac	-13.3672
▁autonomy	-13.3672
▁swamp	-13.3672
ease	-13.3673
▁nonrec	-13.3685
MC	-13.3689
tire	-13.3696
comb	-13.3698
edged	-13.3702
▁Investigator	-13.3705
▁Litton	-13.3705
▁CBOE	-13.3706
▁levy	-13.3706
sophisticat	-13.3706
▁DNA	-13.3707
▁garment	-13.3707
val	-13.371
▁churches	-13.3711
injection	-13.3711
ilia	-13.3726
▁bombs	-13.3731
▁franchiser	-13.3731
▁protester	-13.3734
▁Abu	-13.3734
brick	-13.3734
▁reassure	-13.3734
recycl	-13.3738
▁Palmer	-13.3739
▁miracle	-13.3739
▁curious	-13.3739
▁sink	-13.374
▁Einstein	-13.374
▁undoubted	-13.374
▁Truck	-13.374
▁gallons	-13.3741
▁uncertaint	-13.3744
peddl	-13.3745
Crane	-13.3745
▁rein	-13.3747
▁reflection	-13.3748
57	-13.3749
riches	-13.375
▁Tool	-13.375
sburg	-13.3751
▁jurors	-13.3754
▁reinforce	-13.3756
tics	-13.3759
bought	-13.3761
described	-13.3762
limit	-13.3767
▁Bud	-13.3768
ees	-13.3769
continent	-13.3773
▁affidavit	-13.3773
censor	-13.3773
▁Strong	-13.3773
▁credibl	-13.3773
▁Rapid	-13.3773
ripe	-13.3774
beaten	-13.3775
▁Boland	-13.3775
▁Plesse	-13.3775
▁12.4	-13.3776
▁107	-13.3778
▁artistic	-13.3779
▁kickback	-13.378
tro	-13.3782
manned	-13.3785
▁flee	-13.3786
▁caller	-13.3787
bets	-13.3788
▁Alban	-13.3791
▁staffs	-13.3793
▁Guild	-13.3794
tack	-13.3795
▁dilute	-13.3798
eman	-13.3798
▁Abbo	-13.3803
executive	-13.3803
▁Buffalo	-13.3807
▁Ecuador	-13.3807
▁demonstrator	-13.3809
▁observation	-13.3811
▁libel	-13.3811
ASF	-13.3812
▁investigative	-13.3812
▁amass	-13.3814
▁coincide	-13.3814
▁flock	-13.3815
Salem	-13.3816
▁Polit	-13.382
rode	-13.3825
switch	-13.3826
lack	-13.3828
▁incur	-13.3828
▁17-	-13.3828
chemical	-13.3834
rig	-13.3836
▁plagu	-13.3841
▁bizarre	-13.3841
▁Foley	-13.3841
▁Fear	-13.3841
▁Detail	-13.3842
iegler	-13.3844
registered	-13.3847
balance	-13.3851
reimburse	-13.3851
▁Come	-13.3856
▁relieve	-13.3859
sanction	-13.386
▁newest	-13.3861
▁Perell	-13.3867
aria	-13.387
liberal	-13.3872
evolution	-13.3872
connect	-13.3875
▁Baghdad	-13.3875
▁Silicon	-13.3875
▁umbrella	-13.3875
▁stunning	-13.3875
▁charts	-13.3876
▁vocal	-13.3876
▁Ciba	-13.3876
▁Rumor	-13.3877
▁Equi	-13.3878
▁'60	-13.3878
▁upside	-13.3879
repurchase	-13.3879
▁Leed	-13.3881
▁Carr	-13.3882
▁uphold	-13.3883
aide	-13.3886
▁deepen	-13.3887
spite	-13.3889
▁Clarke	-13.3891
▁counselor	-13.3891
bout	-13.3893
▁Cooke	-13.3894
▁Strip	-13.3902
catching	-13.3909
▁13/16	-13.391
▁Rockefeller	-13.391
abstract	-13.391
▁funnel	-13.391
▁backward	-13.3913
▁12.2	-13.3915
▁excited	-13.3915
▁prototype	-13.3918
BE	-13.3924
salaried	-13.3924
1,300	-13.3924
▁Fernand	-13.3929
▁Capel	-13.3931
▁Franco	-13.3933
dive	-13.3936
▁donate	-13.3941
7,500	-13.3942
▁holidays	-13.3942
▁hottest	-13.3945
▁earmark	-13.3945
erson	-13.3945
▁Stan	-13.3947
fe	-13.3956
glass	-13.3957
▁forgo	-13.3957
uck	-13.3959
gs	-13.3962
Way	-13.3963
▁scaled	-13.3965
51	-13.3969
▁directive	-13.3972
▁Grove	-13.3976
Chernobyl	-13.3979
▁arsenal	-13.3979
▁confusing	-13.3979
▁newcomer	-13.398
renewal	-13.3984
▁Mak	-13.3986
▁shap	-13.3987
2007	-13.3991
100	-13.3992
dock	-13.3995
▁22.5	-13.4001
operative	-13.4011
▁hung	-13.4012
▁12.3	-13.4013
▁Container	-13.4014
▁shrunk	-13.4014
▁stupid	-13.4014
▁Saturn	-13.4014
hinder	-13.4014
▁LDP	-13.4014
▁cereal	-13.4014
▁Piper	-13.4014
▁spotlight	-13.4014
▁CFC	-13.4015
▁Motoren	-13.4017
▁albe	-13.4019
▁Has	-13.4024
sberg	-13.4026
▁teache	-13.4028
Francois	-13.4035
▁15.8	-13.4036
▁122	-13.4041
▁ensur	-13.4041
▁10.9	-13.4041
Times	-13.4042
lar	-13.4046
▁crippl	-13.4046
custod	-13.4047
▁Gibbs	-13.4048
▁Sotheby	-13.4048
▁devastating	-13.4048
▁qualification	-13.4048
Hirsch	-13.4048
Welch	-13.4049
▁spreadsheet	-13.4049
▁Geoffr	-13.4049
▁exert	-13.4049
▁accusing	-13.4049
press	-13.4049
igel	-13.4055
▁launche	-13.4057
▁thrill	-13.4063
▁Barron	-13.4068
▁composer	-13.4076
▁Kay	-13.4077
ogether	-13.4079
blue	-13.4081
motivation	-13.4083
▁Composite	-13.4083
▁Kerkorian	-13.4083
▁Nugget	-13.4083
▁Porsche	-13.4083
accrual	-13.4084
▁unpopular	-13.4084
▁132	-13.4086
suppress	-13.4086
▁Sprink	-13.4087
beneath	-13.4089
▁consultation	-13.409
▁Commerciale	-13.4097
▁Milto	-13.4101
nik	-13.4105
▁petrochemical	-13.4109
wash	-13.411
▁soup	-13.4111
▁incurr	-13.4111
dor	-13.4112
▁Berg	-13.4113
conservation	-13.4114
chem	-13.4115
▁Dear	-13.4117
Eight	-13.4117
Khomeini	-13.4118
▁clever	-13.4119
▁Lyle	-13.4119
translation	-13.412
strong	-13.4121
▁investigator	-13.4122
▁allocate	-13.4124
open	-13.4139
▁Convention	-13.4148
▁hid	-13.4148
▁inflow	-13.415
curve	-13.4153
Shevardna	-13.4154
▁Benefit	-13.4154
▁Helmut	-13.4154
▁Louvre	-13.4154
▁debacle	-13.4154
▁protracted	-13.4154
▁revelation	-13.4154
▁Duncan	-13.4154
▁ample	-13.4157
▁doubtful	-13.4157
wee	-13.416
▁musicians	-13.4161
▁photos	-13.4161
sung	-13.4163
▁195	-13.4168
ut	-13.4168
uting	-13.4168
,500	-13.4169
buro	-13.4175
rough	-13.4176
▁Brand	-13.418
0.00	-13.4181
mur	-13.4187
wick	-13.4187
moto	-13.4187
reign	-13.4188
▁communique	-13.4189
▁stomach	-13.4189
▁ridiculous	-13.4189
▁respondent	-13.4191
▁classroom	-13.4191
happy	-13.4193
▁Was	-13.4195
ahead	-13.4196
▁Sanders	-13.4197
▁Paso	-13.4197
▁Sta	-13.4197
▁Lone	-13.4197
dish	-13.4199
dec	-13.4201
ero	-13.4203
ibility	-13.4205
angered	-13.4206
▁212	-13.4209
▁overwhelm	-13.4209
▁assign	-13.4211
gainst	-13.4214
▁Magazine	-13.4216
feeding	-13.4216
▁caucuse	-13.4221
cr	-13.4222
▁clarify	-13.4225
▁vivid	-13.4225
▁funeral	-13.4225
tke	-13.4225
consolidat	-13.4226
▁Wallach	-13.4227
▁navigat	-13.4231
zon	-13.4233
▁Bells	-13.4247
▁Mur	-13.4248
odge	-13.4248
verything	-13.4259
▁companion	-13.426
▁Thousand	-13.426
▁sculpture	-13.426
▁Prize	-13.426
competence	-13.426
▁pollster	-13.4261
▁socialism	-13.4263
▁outspoken	-13.4264
rne	-13.4266
nu	-13.4266
▁attain	-13.4266
▁convene	-13.4267
▁Gay	-13.4267
hier	-13.4268
VI	-13.4268
▁rains	-13.427
▁Marines	-13.427
nam	-13.427
hal	-13.4271
▁Inn	-13.4279
relieved	-13.4281
▁Revco	-13.4283
▁winds	-13.4286
stated	-13.4287
▁nightmare	-13.4288
drums	-13.4288
▁mili	-13.4291
▁Omaha	-13.4296
▁adjacen	-13.4296
▁inaccurate	-13.4296
powder	-13.4296
▁Wonder	-13.4296
▁remedy	-13.4296
▁Denmark	-13.4296
▁Caledonian	-13.4296
▁parade	-13.4299
▁Highway	-13.4299
▁Pact	-13.4299
designing	-13.43
▁derail	-13.4304
▁classical	-13.4309
▁fever	-13.4311
▁obstruct	-13.4313
fisher	-13.4317
▁stadium	-13.4318
belly	-13.4319
▁toilet	-13.4319
leaning	-13.4326
▁admir	-13.4326
ports	-13.4326
▁resolv	-13.4331
▁Nebraska	-13.4332
▁WPPSS	-13.4332
▁evolve	-13.4332
▁uncomfortable	-13.4334
igna	-13.4336
aire	-13.4338
▁Austrian	-13.4339
▁Cho	-13.4341
▁unaware	-13.4342
▁defection	-13.4342
passenger	-13.4348
heads	-13.435
▁judgments	-13.4351
▁Cro	-13.4355
▁Communication	-13.4361
▁Books	-13.4362
▁Hop	-13.4363
▁Simpson	-13.4368
Geigy	-13.4368
▁detain	-13.4368
▁recreational	-13.4369
▁bosse	-13.4371
▁enlist	-13.4373
▁Gun	-13.4374
▁landlord	-13.4375
▁Akron	-13.438
tell	-13.438
▁dictator	-13.4381
▁12.6	-13.4394
notice	-13.4401
▁comeback	-13.4401
naissance	-13.4404
▁Traffic	-13.4404
▁minivan	-13.4404
▁Pollack	-13.4404
▁Buffett	-13.4405
59	-13.4408
▁reorganiz	-13.4408
▁Village	-13.4409
▁Burma	-13.4409
berry	-13.4412
▁bulls	-13.4414
repair	-13.4417
▁Mine	-13.442
tility	-13.4428
▁Adam	-13.4429
▁Poeh	-13.4431
City	-13.4433
warning	-13.4437
news	-13.4438
▁Khashoggi	-13.444
▁Pretoria	-13.444
▁immense	-13.444
▁harmful	-13.4441
jani	-13.4443
bang	-13.4443
practice	-13.4444
▁reel	-13.4446
▁robb	-13.4446
▁hence	-13.4447
exist	-13.4451
▁capitalists	-13.4452
him	-13.4453
cha	-13.4455
▁Publications	-13.4456
▁13.2	-13.4462
▁Joan	-13.4465
▁Jeff	-13.4465
sheer	-13.4471
▁Financier	-13.4476
▁seldom	-13.4476
▁widow	-13.4476
▁Memorial	-13.4476
▁irregularit	-13.4477
▁Pipeline	-13.4477
▁Yorker	-13.4477
▁packaged	-13.4477
alcoholic	-13.4478
Arthur	-13.4479
▁philosophical	-13.4481
▁sensible	-13.4483
United	-13.4483
1.45	-13.4484
▁outfit	-13.4488
▁reinsurance	-13.4489
lu	-13.4491
▁lagging	-13.4495
deposit	-13.4498
▁Pereir	-13.4498
▁Dann	-13.4505
design	-13.4506
▁Jardine	-13.4513
surgical	-13.4513
▁Cancer	-13.4513
▁cleric	-13.4513
▁ballet	-13.4514
▁Railway	-13.4514
▁imagination	-13.4514
▁essay	-13.4515
▁Excel	-13.4515
East	-13.4518
▁scare	-13.452
lush	-13.4524
▁1961	-13.4525
yn	-13.4526
▁Chen	-13.4527
subscriber	-13.4528
restructuring	-13.4531
acquisition	-13.4531
surge	-13.4533
Car	-13.4535
Andre	-13.4537
▁Bird	-13.4538
▁denounc	-13.454
▁debat	-13.4541
illo	-13.4541
Inland	-13.4542
economy	-13.4543
▁Ris	-13.4544
▁Transco	-13.4545
▁horror	-13.4549
▁WHO	-13.455
▁Banner	-13.455
▁proposition	-13.455
▁Often	-13.455
Frere	-13.4552
▁Haas	-13.4553
▁focuse	-13.4556
managers	-13.4557
▁Rhode	-13.4557
▁Pete	-13.4558
▁35,000	-13.4561
cleaner	-13.457
depressing	-13.4576
sensitivity	-13.4581
grabb	-13.4583
▁112	-13.4585
▁Block	-13.4585
▁Gran	-13.4586
▁Zucker	-13.4586
▁Goldsmith	-13.4586
▁Bridgestone	-13.4586
▁implie	-13.4587
▁Publisher	-13.4592
▁anonymous	-13.4593
computing	-13.4594
▁SAS	-13.4597
▁Rolls	-13.4601
Systems	-13.4608
▁Pear	-13.461
Williams	-13.4619
democracy	-13.4619
▁civic	-13.4623
▁amateur	-13.4623
▁Alfons	-13.4623
▁Baldwin	-13.4623
▁Issue	-13.4623
Peabody	-13.4625
▁Photo	-13.4627
1.10	-13.4628
Culver	-13.4628
▁Monica	-13.4631
private	-13.4635
▁outdoor	-13.4636
16,000	-13.4637
1.02	-13.4639
▁preclude	-13.464
TS	-13.464
▁desperately	-13.464
rin	-13.4645
▁homeowners	-13.4645
▁Gerber	-13.4647
▁Inco	-13.4654
Pic	-13.4655
Iran	-13.4657
▁Commod	-13.466
▁adjourn	-13.466
▁Gibbons	-13.466
▁Brunei	-13.466
▁verification	-13.466
▁defective	-13.466
▁NTT	-13.4661
▁condom	-13.4661
rescheduling	-13.4662
oh	-13.4662
hip	-13.4666
▁12.50	-13.4666
▁railway	-13.4667
rounds	-13.4669
ado	-13.4669
suite	-13.4671
1.69	-13.4673
holiday	-13.4674
▁Jo	-13.4677
▁Bal	-13.4682
▁presid	-13.4683
corrected	-13.4684
▁softening	-13.4685
▁figur	-13.4687
▁telephones	-13.4693
▁Officer	-13.4694
regard	-13.4695
▁Bru	-13.4695
▁Guy	-13.4695
▁burgeon	-13.4697
▁elephant	-13.4697
Watergate	-13.4698
▁elegan	-13.4698
▁truce	-13.4698
▁reimbursement	-13.4698
▁slack	-13.4698
▁managerial	-13.47
eau	-13.4702
notification	-13.4704
wine	-13.4709
▁wipe	-13.4716
▁bounced	-13.4717
▁allocat	-13.4718
▁Leas	-13.4719
▁cook	-13.4725
bon	-13.473
fight	-13.4734
▁Henderson	-13.4735
▁Rowntree	-13.4735
▁Soybean	-13.4735
▁epidemic	-13.4735
▁genetically	-13.4735
▁Kissinger	-13.4735
Nielsen	-13.4735
▁Cocoa	-13.4735
▁arbitrator	-13.4735
▁Freeport	-13.4735
▁900,000	-13.4735
▁pleasant	-13.4735
▁fragile	-13.4735
oxide	-13.4736
Clean	-13.4737
ears	-13.4737
▁landfill	-13.4738
▁voter	-13.474
▁confine	-13.474
▁picket	-13.4743
prayer	-13.4744
finding	-13.4745
meter	-13.4749
▁disclos	-13.4749
▁consume	-13.4752
▁planted	-13.4755
bin	-13.4756
Ferr	-13.4759
cover	-13.4762
▁advocated	-13.4763
▁12.7	-13.4764
itt	-13.4768
ermenta	-13.4772
▁Tesoro	-13.4772
▁Alzheimer	-13.4772
▁Consultant	-13.4772
▁Lauderdale	-13.4772
▁Khoo	-13.4772
▁Vanguard	-13.4772
▁HOME	-13.4772
imaging	-13.4773
▁pregnancy	-13.4773
▁Ridge	-13.4773
▁posture	-13.4774
utilization	-13.4775
▁Putt	-13.4775
▁24.9	-13.4778
▁Sud	-13.4778
▁naming	-13.4783
enthal	-13.4783
▁Sky	-13.4784
ager	-13.4786
▁phased	-13.4788
incentive	-13.4797
British	-13.4799
McCorm	-13.4805
▁121	-13.4805
▁Brierley	-13.481
grandfather	-13.481
▁Tucker	-13.481
▁skidd	-13.4811
dealers	-13.4811
▁11.6	-13.4812
▁Side	-13.4812
▁Scali	-13.4817
Lawn	-13.4823
▁challenger	-13.4824
kowski	-13.4824
▁patron	-13.4826
av	-13.4826
▁poured	-13.4827
agent	-13.4833
▁tightly	-13.4834
▁Reich	-13.4835
mir	-13.484
MS	-13.4842
uli	-13.4844
▁jumbo	-13.4847
▁candidacy	-13.4848
▁dismal	-13.4848
af	-13.4848
▁earnest	-13.4849
▁systematic	-13.4849
▁Troy	-13.4851
▁MIT	-13.4851
▁Full	-13.4855
▁Drav	-13.4857
▁wells	-13.4861
▁90-	-13.4862
▁Dale	-13.4864
▁Holland	-13.4866
wave	-13.4868
▁jumping	-13.4869
gold	-13.4873
lier	-13.4877
Wallac	-13.4878
▁129	-13.4885
▁Schuster	-13.4885
▁OECD	-13.4885
▁fledgling	-13.4885
▁grasp	-13.4885
▁infrastructure	-13.4886
▁Thrift	-13.4886
▁Grossman	-13.4888
▁unified	-13.4888
eger	-13.4891
uc	-13.4901
populist	-13.4903
rison	-13.4903
▁upbeat	-13.4904
▁Taco	-13.4906
ICC	-13.4907
eslie	-13.4909
8.15	-13.4911
doubted	-13.4915
▁recess	-13.4922
▁sprawl	-13.4923
▁Appropriation	-13.4923
▁Lonrho	-13.4923
▁Brunswick	-13.4923
Round	-13.4924
▁Buckley	-13.4924
▁Lynn	-13.4927
▁CDC	-13.493
shelf	-13.4931
killer	-13.4931
borne	-13.4932
▁Count	-13.4933
idney	-13.4934
▁lighter	-13.4935
TC	-13.4939
▁reinvest	-13.4939
▁handicappe	-13.4949
license	-13.4951
preserv	-13.4954
1.16	-13.4954
zy	-13.496
Gardner	-13.4962
▁Sudden	-13.4962
itadel	-13.4962
▁VA	-13.4964
auer	-13.4964
tenth	-13.4964
unionized	-13.4966
gut	-13.4967
▁fame	-13.4968
Ran	-13.4969
▁Cha	-13.4973
tronics	-13.4973
rushing	-13.4974
picked	-13.4979
▁menu	-13.4986
▁149	-13.4987
dancing	-13.5
▁KGB	-13.5
▁Pinoch	-13.5
▁disregard	-13.5
▁LeBow	-13.5
▁wildlife	-13.5
▁upgrading	-13.5001
▁phony	-13.5001
▁digest	-13.5002
▁Never	-13.5002
▁Bab	-13.5003
solvency	-13.5007
▁Saul	-13.5013
▁conform	-13.5014
newer	-13.5015
4,500	-13.5018
▁Traditional	-13.502
andra	-13.5024
▁misrepresent	-13.5027
▁belongs	-13.5034
slashing	-13.5036
kie	-13.5038
TRUST	-13.5038
▁Bhopal	-13.5038
▁Cardinal	-13.5038
▁Working	-13.5038
▁irrelevant	-13.5038
▁Kemper	-13.5039
▁celebrity	-13.5039
ancy	-13.5046
ranch	-13.5047
▁ironic	-13.5048
▁gentle	-13.5048
inal	-13.5049
▁civilians	-13.5051
stabilization	-13.5054
bach	-13.5055
▁contradict	-13.5057
▁sorry	-13.5057
▁constituents	-13.5057
ior	-13.5059
▁118	-13.506
▁feud	-13.5061
▁11.1	-13.5061
Mark	-13.5063
▁Gal	-13.5069
▁Dee	-13.5072
▁bounce	-13.5074
▁flourish	-13.5075
▁Feld	-13.5076
▁crowds	-13.5076
▁etc	-13.5076
▁occurr	-13.5076
Humphrey	-13.5077
▁Either	-13.5077
▁rescind	-13.5077
▁Morning	-13.5077
▁Spokesm	-13.5077
▁Hanna	-13.5077
▁Finland	-13.5077
wield	-13.5078
▁commentator	-13.5079
-18	-13.5081
▁11-	-13.5085
udging	-13.5086
Syrian	-13.5088
▁Zi	-13.5098
pricing	-13.5103
▁Unicor	-13.5106
Qu	-13.5107
won	-13.5108
▁13.4	-13.5112
▁awkward	-13.5116
▁outweigh	-13.5116
▁catalyst	-13.5116
▁Apparent	-13.5116
▁erratic	-13.5116
ballistic	-13.5116
▁stint	-13.5116
martial	-13.5116
▁multimillion	-13.5116
▁35-	-13.5118
▁plight	-13.5118
▁Ab	-13.5119
▁Coul	-13.512
▁Thai	-13.512
▁Ian	-13.5121
▁conv	-13.5121
▁13.8	-13.5123
▁113	-13.5124
▁practic	-13.5124
▁109	-13.5126
▁scar	-13.5126
rash	-13.5129
ieg	-13.5131
ctic	-13.5133
▁Heart	-13.5133
,300	-13.5134
1.08	-13.5135
▁clearer	-13.5138
ening	-13.5139
▁continual	-13.5139
strapped	-13.5139
1,100	-13.5142
mil	-13.5145
balanc	-13.515
tight	-13.515
serve	-13.515
heir	-13.515
nkel	-13.5154
▁dubious	-13.5155
▁grievance	-13.5155
Bishop	-13.5155
▁stirred	-13.5155
▁compell	-13.5155
▁Summer	-13.5156
▁credentials	-13.5158
rival	-13.5159
auf	-13.516
▁Edgar	-13.516
▁abort	-13.516
▁Directors	-13.5162
▁withhold	-13.5162
ita	-13.5166
▁11.7	-13.5166
▁Annualiz	-13.5171
popp	-13.5176
1.03	-13.5181
▁Arias	-13.5183
oo	-13.5185
Ichi	-13.5187
teller	-13.519
scheduling	-13.5192
▁1963	-13.5193
▁Temple	-13.5193
▁spiritual	-13.5194
▁Ongpi	-13.5194
rehabilitation	-13.5194
▁Lipton	-13.5194
▁refrigerator	-13.5194
▁Fowle	-13.5194
▁subordinates	-13.5194
▁Producer	-13.5194
▁endless	-13.5195
▁transformation	-13.5196
dawn	-13.5199
usual	-13.52
▁SBA	-13.5203
▁invented	-13.5204
eight	-13.5206
▁neat	-13.5209
▁Lou	-13.5213
▁riots	-13.5213
▁Easter	-13.5214
▁clashe	-13.5219
375	-13.522
▁Amid	-13.523
lion	-13.5231
▁Consequent	-13.5233
▁privatize	-13.5233
▁unrealistic	-13.5233
▁earliest	-13.5233
vested	-13.5233
nna	-13.5233
▁tackle	-13.5234
▁unfriendl	-13.5237
Bush	-13.5238
een	-13.5241
specific	-13.5243
Libyan	-13.5243
▁beans	-13.5245
▁noon	-13.5247
▁14.7	-13.5247
1,400	-13.5248
▁runway	-13.5249
▁bleak	-13.525
▁Hyde	-13.5253
▁Lan	-13.5254
propell	-13.5257
▁Kurt	-13.526
▁span	-13.5264
hose	-13.5266
eco	-13.5268
▁pope	-13.5268
▁Adel	-13.5269
▁Newman	-13.5271
▁Continu	-13.5272
▁batteries	-13.5272
▁Festival	-13.5272
▁Oscar	-13.5272
▁marvel	-13.5272
tec	-13.5273
Royce	-13.5273
▁fur	-13.5276
▁shunn	-13.5277
▁Wa	-13.5281
▁GEC	-13.5284
▁Venezuelan	-13.5285
iser	-13.5288
ple	-13.5289
▁execute	-13.53
▁Compar	-13.5301
▁wheels	-13.5308
▁Ranch	-13.5311
urgency	-13.5311
Giorgio	-13.5312
▁Bloomingdale	-13.5312
▁tangible	-13.5312
▁Pepper	-13.5312
▁Whin	-13.5312
caucus	-13.5317
Malaysian	-13.5322
▁bicycle	-13.5323
▁legs	-13.5323
▁142	-13.5324
▁spurn	-13.5327
ene	-13.5333
boo	-13.5334
▁factions	-13.5335
pole	-13.5336
▁relie	-13.5336
irelli	-13.5344
▁Wil	-13.5348
▁14.8	-13.5351
▁Military	-13.5351
▁Germain	-13.5351
▁Cyclo	-13.5351
cake	-13.5352
▁Thur	-13.5352
▁journalism	-13.5352
▁subdue	-13.5352
▁costume	-13.5353
prone	-13.5356
▁economical	-13.5357
pu	-13.5358
▁Ruth	-13.536
▁Ott	-13.536
▁144	-13.536
1.09	-13.536
AID	-13.5365
▁micro	-13.5367
1,600	-13.5368
▁Lance	-13.5369
▁Sey	-13.5371
stopping	-13.5374
LA	-13.5375
reach	-13.5379
uk	-13.5381
mount	-13.5385
oghu	-13.5386
▁FOREIGN	-13.5391
▁ZZZZ	-13.5391
▁assassination	-13.5391
▁brochure	-13.5391
▁discrepanc	-13.5391
▁Lypho	-13.5391
▁Creek	-13.5391
▁resentment	-13.5392
▁Midway	-13.5392
▁motors	-13.5392
▁forceful	-13.5393
wore	-13.5394
▁architecture	-13.5398
treasurer	-13.5399
▁Except	-13.5399
1984	-13.5399
▁intimate	-13.54
▁Vi	-13.5413
▁Fur	-13.5421
▁dimension	-13.5427
▁Kings	-13.5428
▁clip	-13.5428
umble	-13.5428
▁taxi	-13.5429
diagnose	-13.543
▁aftermath	-13.5431
▁wreck	-13.5431
▁Rosenberg	-13.5431
▁OMB	-13.5431
dried	-13.5431
ula	-13.5432
▁predominant	-13.5432
▁Regina	-13.5435
▁hike	-13.5437
▁drawback	-13.5446
reinforced	-13.5449
1.68	-13.5449
vita	-13.5453
▁Queens	-13.5455
eck	-13.5458
▁Che	-13.5461
Line	-13.5463
▁replie	-13.5464
till	-13.5466
▁frenz	-13.5466
▁Lanka	-13.5467
▁apt	-13.5468
▁Helms	-13.5471
▁bloody	-13.5471
▁spoil	-13.5472
▁Benton	-13.5472
▁Protest	-13.5473
▁wedding	-13.5473
cab	-13.5474
▁Nichols	-13.5475
▁Dor	-13.5475
▁distortion	-13.5475
▁watche	-13.5476
gging	-13.548
▁Get	-13.548
▁Hy	-13.5485
▁resurgenc	-13.5487
benefits	-13.5489
conceiv	-13.5489
▁Majorit	-13.549
belief	-13.549
transmitt	-13.5492
▁distinguished	-13.5495
ire	-13.5498
▁Peres	-13.5501
program	-13.5503
1.77	-13.5504
TH	-13.5505
cin	-13.5506
present	-13.5507
course	-13.5507
MAN	-13.5511
▁mountains	-13.5512
seizure	-13.5512
▁Panhandle	-13.5512
▁Doctor	-13.5512
▁synthetic	-13.5512
▁tomato	-13.5512
▁Rales	-13.5512
shatter	-13.5514
als	-13.5514
▁Wu	-13.5515
uperconductivity	-13.5517
instruction	-13.5518
▁Chancer	-13.552
▁70-	-13.5521
▁prescribe	-13.5521
urges	-13.5523
Burke	-13.5523
▁Crom	-13.5525
chase	-13.5525
▁Lip	-13.5527
▁chairmanship	-13.5528
▁conjuncti	-13.5531
software	-13.5535
▁thank	-13.5538
▁Household	-13.5541
explicit	-13.5544
▁Yellow	-13.5544
▁outpac	-13.5549
owski	-13.555
▁Tur	-13.5551
disproportionate	-13.5552
generator	-13.5552
▁parcel	-13.5552
▁kingdom	-13.5552
▁stubborn	-13.5552
▁Patricia	-13.5554
▁Hawaiian	-13.5557
▁114	-13.5558
▁fret	-13.5558
▁Earl	-13.5559
1.04	-13.5561
▁bitterly	-13.5562
▁Child	-13.5562
cs	-13.5562
1.82	-13.5563
pal	-13.5565
conductor	-13.5573
buyout	-13.5574
fault	-13.5574
Looking	-13.5581
▁vacations	-13.5582
tile	-13.5582
Life	-13.5582
1.87	-13.5585
▁sail	-13.5586
utomotive	-13.5587
▁Wertheim	-13.5592
conservative	-13.5592
Horizon	-13.5593
stimulus	-13.5593
▁Dresdner	-13.5593
▁Solomon	-13.5593
▁jolt	-13.5593
▁perfume	-13.5593
tolerance	-13.5593
▁blessing	-13.5593
▁savv	-13.5593
▁Rubic	-13.5593
▁Representative	-13.5595
brokerage	-13.5596
respect	-13.5596
▁13.50	-13.5597
1.55	-13.5604
▁insistence	-13.5606
bal	-13.5607
▁spinning	-13.5608
eur	-13.5608
▁1.625	-13.5608
showroom	-13.5609
1.67	-13.5609
zero	-13.5611
▁ruler	-13.5611
▁Inside	-13.5613
▁evacu	-13.5621
appreciated	-13.5628
▁Appli	-13.563
1.30	-13.5631
mptroller	-13.5633
▁languish	-13.5634
▁9/16	-13.5634
▁Amusement	-13.5634
▁Symphon	-13.5634
▁Veteran	-13.5634
▁peculiar	-13.5634
▁Gandhi	-13.5634
▁Carroll	-13.5634
▁Automobile	-13.5634
▁PNC	-13.5634
▁silly	-13.5634
mmigration	-13.5634
▁LOAN	-13.5634
▁Crude	-13.5635
▁Gap	-13.5635
bu	-13.5636
pared	-13.5636
▁toughest	-13.5636
1.78	-13.5645
▁caps	-13.5653
hor	-13.5654
▁slot	-13.5654
presidential	-13.5657
signed	-13.5657
hl	-13.5658
1.07	-13.5663
regional	-13.5663
▁visa	-13.5667
▁matche	-13.5668
7.95	-13.567
Plymouth	-13.5675
▁customar	-13.5675
▁furious	-13.5675
▁Studio	-13.5675
tainted	-13.5675
▁Ozal	-13.5675
▁downgrading	-13.5675
rec	-13.5676
▁insult	-13.5677
▁refineries	-13.5678
ridde	-13.5678
▁ponder	-13.5679
SH	-13.568
1.14	-13.5684
fitting	-13.5684
ception	-13.5684
▁reschedule	-13.5685
basement	-13.5686
sting	-13.5688
▁followers	-13.5694
▁perk	-13.5699
Arab	-13.5705
Station	-13.5715
▁ASSOCIATION	-13.5716
▁Wheeling	-13.5716
▁Placer	-13.5716
▁essence	-13.5716
▁remedie	-13.5716
▁Laboratory	-13.5716
affiliation	-13.5716
▁lobbie	-13.5719
▁erect	-13.5719
dding	-13.5721
125	-13.5721
▁Property	-13.5724
▁14.3	-13.5726
▁Equal	-13.5726
GM	-13.5728
embarrassed	-13.5728
▁Res	-13.5736
fast	-13.5738
1,800	-13.5739
▁Play	-13.574
solving	-13.5743
▁perceive	-13.5745
▁Chang	-13.5746
theater	-13.5751
USS	-13.5751
134	-13.5755
▁Kal	-13.5756
▁mega	-13.5757
▁Jerusalem	-13.5757
▁Speculation	-13.5757
▁exhausted	-13.5757
▁undersecretary	-13.5757
▁Spectra	-13.5757
▁foreclosure	-13.5757
▁Ameritech	-13.5757
▁InterFirst	-13.5757
▁Oversea	-13.5758
▁Wireless	-13.5758
▁nasty	-13.5759
▁Syn	-13.5761
▁explicitly	-13.5766
▁isolation	-13.5768
eh	-13.5771
aired	-13.5774
▁homeland	-13.5774
▁flie	-13.5779
▁statutor	-13.578
▁Bridge	-13.5781
orrell	-13.5787
0.50	-13.5789
▁norm	-13.5793
Electro	-13.5796
holder	-13.5798
▁Productions	-13.5798
turbine	-13.5799
▁Cyprus	-13.5799
▁Modern	-13.5799
▁embark	-13.5799
▁Osaka	-13.5799
▁genius	-13.5799
▁Disease	-13.5799
Roe	-13.58
frequency	-13.58
laud	-13.5801
▁quell	-13.5801
Hollings	-13.5801
▁fibers	-13.5801
▁banner	-13.5804
▁restart	-13.5804
bolt	-13.5807
▁affordable	-13.5807
▁11.8	-13.5807
▁purported	-13.5808
▁Said	-13.5809
rigs	-13.581
bel	-13.5811
▁111	-13.5812
adventure	-13.5813
surpassed	-13.5819
▁Medi	-13.5822
bare	-13.5824
▁Mother	-13.5832
eous	-13.5835
▁McKa	-13.5839
trition	-13.584
▁occupy	-13.584
▁unleash	-13.584
▁Gabelli	-13.584
▁Paisley	-13.584
▁anonymity	-13.584
▁Emerson	-13.584
▁poultry	-13.584
▁simpl	-13.584
▁unreasonable	-13.5841
▁dilution	-13.5841
▁Truman	-13.5842
trumpet	-13.5842
Est	-13.5843
▁Mission	-13.5844
iz	-13.5844
▁explosives	-13.5848
completed	-13.5853
ath	-13.5854
inai	-13.5854
▁Freed	-13.5857
▁moon	-13.5858
Master	-13.5859
Miyaza	-13.5859
fair	-13.586
▁Ve	-13.5862
▁Au	-13.5867
earns	-13.5869
▁swift	-13.5871
por	-13.5873
segregat	-13.5877
▁Marks	-13.5878
SI	-13.588
▁Zhao	-13.5882
▁derivative	-13.5882
▁gimmick	-13.5882
tropic	-13.5882
▁50-50	-13.5883
▁beds	-13.5884
ib	-13.5884
▁Cape	-13.5889
CH	-13.5889
▁startling	-13.5891
sounding	-13.5896
▁Plant	-13.59
▁Itel	-13.5904
nce	-13.5913
meters	-13.5916
Gem	-13.5916
▁orbit	-13.5918
▁Mol	-13.5922
▁addresse	-13.5923
▁Accept	-13.5924
▁GRAIN	-13.5924
▁Texan	-13.5924
▁hesitate	-13.5924
▁upheaval	-13.5924
▁Jerome	-13.5924
▁fragrance	-13.5924
▁impasse	-13.5924
▁Hambrec	-13.5924
▁Theatre	-13.5924
▁microchip	-13.5924
▁garner	-13.5924
intensit	-13.5924
transmission	-13.5926
▁Ger	-13.593
▁Plans	-13.5932
vans	-13.5933
▁Burroughs	-13.5933
▁pig	-13.5934
establish	-13.5935
▁Humana	-13.5936
▁Normal	-13.5939
▁photographer	-13.5939
panel	-13.5941
idal	-13.5942
Pac	-13.5942
▁bale	-13.5945
Pitt	-13.595
▁11,000	-13.5952
gui	-13.5955
agged	-13.5959
1.40	-13.5959
▁overvalu	-13.596
NO	-13.5962
▁liberty	-13.5966
▁tragic	-13.5966
mfac	-13.5966
▁Touche	-13.5966
RSB	-13.5967
▁Battle	-13.5967
▁Churchill	-13.5967
▁Hatch	-13.5967
peripheral	-13.5967
▁codes	-13.5967
▁tractor	-13.5968
▁justification	-13.5968
▁CPC	-13.5969
MP	-13.5969
▁Porter	-13.5971
▁flip	-13.5975
▁'70	-13.5975
▁swiftly	-13.5978
hrank	-13.5979
▁refuge	-13.5981
-14	-13.5983
▁131	-13.5984
▁maneuvering	-13.5991
.70	-13.5996
▁Encor	-13.5996
commercial	-13.6003
impact	-13.6004
▁retaliate	-13.6004
▁premiere	-13.6005
kilowatt	-13.6009
▁unlimited	-13.6009
▁champagne	-13.6009
▁outrageous	-13.6009
identification	-13.6012
▁dentist	-13.6013
▁Have	-13.6015
▁poly	-13.6017
▁expell	-13.6018
wig	-13.6019
▁ultra	-13.6019
▁fearful	-13.6021
Bork	-13.6025
▁Ash	-13.6029
Milli	-13.6033
crop	-13.6034
▁Midwestern	-13.6035
▁Arabian	-13.6037
▁genes	-13.6038
▁Den	-13.6039
important	-13.6044
▁poet	-13.6046
▁reminder	-13.6047
CF	-13.6048
▁117	-13.6049
▁Ambassador	-13.6051
▁Rudolph	-13.6051
blade	-13.6051
▁hamburger	-13.6051
coastal	-13.6053
gy	-13.606
▁abound	-13.6062
▁domestically	-13.6062
▁pad	-13.607
▁circumvent	-13.6073
temp	-13.6074
▁Bec	-13.6075
lid	-13.609
▁faded	-13.6093
osko	-13.6093
▁alternate	-13.6094
▁earthquake	-13.6094
▁implicit	-13.6094
▁Pol	-13.6094
▁buoyant	-13.6094
rell	-13.6095
▁Noble	-13.6096
MG	-13.6097
▁Micke	-13.6098
strid	-13.6098
0.01	-13.6099
Moran	-13.61
▁Clair	-13.6102
▁Lied	-13.6104
▁distorted	-13.6108
fitness	-13.6108
▁boring	-13.6111
▁fake	-13.612
▁policyholder	-13.612
▁renegotiate	-13.6121
▁inmates	-13.6122
▁loosen	-13.6124
vitz	-13.6124
breaker	-13.6124
commission	-13.6127
▁Vick	-13.6128
▁143	-13.6128
arbitrage	-13.6132
▁dol	-13.6133
ohn	-13.6133
humanitarian	-13.6137
▁BRIEF	-13.6137
▁Thornburgh	-13.6137
LaRoc	-13.6137
▁championship	-13.6137
▁cockpit	-13.6137
▁ninth	-13.6137
ace	-13.6137
▁Reil	-13.6138
1.19	-13.6138
▁Galler	-13.6139
OUS	-13.614
▁Whittle	-13.6141
▁256	-13.6144
rocket	-13.6144
340	-13.6146
▁32-	-13.6146
▁Mini	-13.6151
▁Bad	-13.6157
▁13.3	-13.6161
ming	-13.6164
▁Change	-13.6169
recovery	-13.617
ILL	-13.6176
Davis	-13.6177
justice	-13.6179
▁nonunion	-13.618
▁Frueh	-13.618
▁procedural	-13.618
▁smelter	-13.618
▁Tandem	-13.618
▁polite	-13.618
▁Burbank	-13.618
▁GDP	-13.618
▁flowers	-13.6184
1.88	-13.6185
printing	-13.6185
▁65-	-13.6186
tongue	-13.6186
acco	-13.6188
▁Qin	-13.6189
▁Lion	-13.6189
▁sake	-13.6192
cooled	-13.6195
▁15.2	-13.6202
▁Colin	-13.6203
olar	-13.6203
▁defi	-13.6206
1.13	-13.6212
▁clerks	-13.6213
▁Herz	-13.6215
▁360	-13.6216
▁17.6	-13.622
dressing	-13.622
vulnerabilit	-13.6223
▁Amtrak	-13.6223
▁SOYBEAN	-13.6223
▁exodus	-13.6223
▁patience	-13.6223
Monarch	-13.6224
attel	-13.6224
▁Phel	-13.6224
▁shipbuilding	-13.6224
ened	-13.6224
litz	-13.6224
▁Triad	-13.6225
▁Engle	-13.6228
gum	-13.6228
▁Butcher	-13.623
yl	-13.623
▁ouster	-13.6231
Current	-13.6234
furnishing	-13.6236
▁Qui	-13.6237
capitaliz	-13.6238
decision	-13.6242
▁Aspin	-13.6244
▁solar	-13.6245
dom	-13.6247
8.10	-13.625
llo	-13.6251
tenant	-13.6253
chari	-13.6253
▁suppose	-13.6255
▁hijack	-13.626
team	-13.6266
pessimis	-13.6266
▁Monitor	-13.6267
▁Wheeler	-13.6267
▁spiral	-13.6267
▁Hasbro	-13.6267
▁cousin	-13.6267
▁corridor	-13.6267
dioxide	-13.6267
▁Martinez	-13.6267
▁takeoff	-13.6267
▁Watson	-13.6267
▁Melv	-13.6268
shade	-13.6268
▁fray	-13.6269
▁friendship	-13.6269
▁unfold	-13.6269
process	-13.627
Month	-13.6271
solvent	-13.6276
▁Heck	-13.6277
▁Snow	-13.6277
aison	-13.6279
▁14.4	-13.6281
advoca	-13.6285
torn	-13.6286
▁sovereignt	-13.6288
inflict	-13.6296
bend	-13.6297
iversity	-13.6301
▁Farms	-13.6303
▁Mall	-13.6304
loha	-13.6306
▁democrac	-13.6306
▁21-	-13.6306
▁Cad	-13.6308
Logistic	-13.631
spectacle	-13.631
▁troubling	-13.631
▁Spiegel	-13.631
feasible	-13.6311
▁Thornton	-13.6311
▁Jacksonville	-13.6312
▁Mag	-13.6315
▁verify	-13.632
haired	-13.632
▁burdens	-13.6324
▁resin	-13.6328
▁Jacobson	-13.6328
▁Shad	-13.6328
missions	-13.6329
represented	-13.6332
Well	-13.6333
property	-13.6335
▁15.6	-13.6336
▁Steelworker	-13.6337
▁scan	-13.6338
exploration	-13.6339
Air	-13.6341
satellite	-13.6345
▁downside	-13.6348
proliferation	-13.6354
▁ENERGY	-13.6354
▁Hachette	-13.6354
▁Niagara	-13.6354
▁envoy	-13.6354
▁pragmatic	-13.6354
▁psychiatric	-13.6354
▁138	-13.6354
▁blanket	-13.6354
▁verge	-13.6355
▁Summers	-13.6356
1.01	-13.636
ros	-13.636
polish	-13.6365
getting	-13.6365
▁2003	-13.6366
▁fallout	-13.6366
▁SS	-13.6366
erner	-13.6373
▁uprising	-13.6378
▁Newton	-13.638
▁Haven	-13.6383
FOR	-13.6384
▁Denis	-13.6385
▁calculat	-13.6386
▁1,1	-13.6387
▁Fal	-13.6391
rug	-13.6392
▁Sak	-13.6397
anese	-13.6398
▁1959	-13.6398
Lease	-13.6398
▁Arlington	-13.6398
▁discouraging	-13.6398
mmerz	-13.6398
▁Heights	-13.6398
▁Doyle	-13.6399
▁16.6	-13.6399
▁Scottish	-13.6399
Hennessy	-13.6399
▁detention	-13.6399
simulat	-13.6401
▁fade	-13.6404
▁Closely	-13.6405
juries	-13.6406
wealth	-13.6412
▁topping	-13.6413
.75	-13.6414
wind	-13.6414
▁Marlin	-13.6422
▁obligate	-13.6423
▁Mergers	-13.6428
▁programmer	-13.6431
▁205	-13.6433
▁Rhodes	-13.6433
optic	-13.6436
▁hinge	-13.6437
carrier	-13.6438
ail	-13.644
silicon	-13.6441
▁Meridian	-13.6443
▁Shapiro	-13.6443
▁negligence	-13.6443
▁Abbott	-13.6443
▁practitioner	-13.6443
▁Cardena	-13.6443
▁razor	-13.6443
▁relentless	-13.6443
▁Hawk	-13.6443
bulb	-13.6443
▁dislike	-13.6444
▁township	-13.6445
▁wooden	-13.6446
▁appellate	-13.6447
▁contradiction	-13.6448
▁Chilean	-13.6451
▁CALL	-13.6453
bay	-13.6453
▁Try	-13.6454
▁identifie	-13.6455
▁shower	-13.6461
▁Duff	-13.6463
▁treasure	-13.6468
▁examiner	-13.6469
central	-13.647
hostages	-13.6472
▁Model	-13.6474
▁Hare	-13.6476
enterprise	-13.6483
▁Ac	-13.6484
lightly	-13.6487
sulfur	-13.6487
theatrical	-13.6487
▁Increasing	-13.6487
▁Johannesburg	-13.6487
▁Pilgrim	-13.6487
▁supreme	-13.6487
▁streamlining	-13.6487
▁hopeless	-13.6487
▁VCR	-13.6487
resistant	-13.6488
▁Usual	-13.6488
trafficking	-13.6488
Martell	-13.6488
▁buffer	-13.6489
▁Cold	-13.6489
▁dining	-13.6489
modern	-13.6492
choreograph	-13.6492
▁Bermuda	-13.6494
apped	-13.6495
▁sliding	-13.6499
▁naive	-13.6499
▁locals	-13.6501
▁inhibit	-13.6502
▁TR	-13.6502
death	-13.651
enzie	-13.651
eu	-13.6523
fuss	-13.6527
▁19.9	-13.6529
McGovern	-13.6532
▁Bronfman	-13.6532
▁Jovanovich	-13.6532
▁Textile	-13.6532
▁fluctuate	-13.6532
colonial	-13.6532
▁Combin	-13.6533
▁illnesses	-13.6534
rep	-13.6534
▁summon	-13.6534
detector	-13.6537
▁battlefield	-13.6537
1.32	-13.6538
▁captive	-13.6539
▁clam	-13.654
barge	-13.6541
▁Bang	-13.6544
pens	-13.6546
rctic	-13.6546
▁nickname	-13.6549
▁palm	-13.655
EI	-13.6553
▁13.9	-13.6553
Wor	-13.6555
▁Allis	-13.6556
▁Run	-13.6556
forma	-13.6558
ovich	-13.656
▁donat	-13.6563
▁periodic	-13.6565
zak	-13.6566
tung	-13.6566
NEY	-13.6568
yette	-13.6569
▁Fa	-13.6573
▁Recruit	-13.6577
▁renovation	-13.6577
▁Ericsson	-13.6577
▁Combusti	-13.6577
▁terrific	-13.6577
▁Kaplan	-13.6577
▁Rubin	-13.6577
▁Hyatt	-13.6577
▁Nathan	-13.6577
▁Clinton	-13.6577
▁Bates	-13.6579
Mayer	-13.658
leaf	-13.658
▁CMS	-13.6582
communists	-13.6583
iles	-13.6585
ister	-13.6585
▁jewel	-13.6588
Average	-13.6597
▁'80	-13.6598
▁statu	-13.6599
▁Rank	-13.6599
grain	-13.6601
graph	-13.6603
▁brass	-13.6605
Schw	-13.6606
equities	-13.6606
1.66	-13.6607
8.125	-13.6609
▁Virgin	-13.6611
▁Hog	-13.6611
▁defender	-13.6612
assa	-13.6619
capsule	-13.6622
▁Bronx	-13.6622
▁Financing	-13.6622
▁inconsistent	-13.6622
▁Higgins	-13.6622
▁marijuana	-13.6622
▁skyrocket	-13.6622
▁Hitler	-13.6622
certification	-13.6622
▁Again	-13.6622
▁endowment	-13.6623
▁outbreak	-13.6624
▁Drill	-13.6624
pine	-13.6627
▁warship	-13.6627
lumberg	-13.6628
▁glasses	-13.6629
▁dig	-13.663
rist	-13.6637
▁locate	-13.6638
▁sabotage	-13.6643
▁duplicate	-13.6643
▁sedan	-13.6644
▁Firm	-13.6645
celebr	-13.6645
▁290	-13.6647
▁Beck	-13.6647
inning	-13.6649
shire	-13.665
lapse	-13.6656
▁mold	-13.6658
earner	-13.6658
▁Customer	-13.666
align	-13.6664
▁emperor	-13.6667
▁illusion	-13.6667
▁obsolet	-13.6667
crawl	-13.6667
Freight	-13.6667
Claude	-13.6667
▁offender	-13.6668
▁Lenin	-13.6672
▁17.50	-13.6672
▁zeal	-13.6676
consumer	-13.6679
▁annu	-13.6679
▁Dana	-13.668
1.86	-13.6682
▁standpoint	-13.6683
heart	-13.6683
▁Charlie	-13.6684
▁Pu	-13.6686
7.20	-13.6689
▁sovereign	-13.669
limits	-13.6693
▁Seat	-13.6695
rim	-13.6695
0.10	-13.6695
lower	-13.6695
▁Para	-13.6697
admire	-13.6697
breeding	-13.6698
▁Nash	-13.6699
▁screw	-13.6699
▁14.6	-13.6701
▁abortions	-13.6702
▁Capt	-13.6704
nutrition	-13.6704
▁Reflect	-13.6704
chat	-13.6707
Direct	-13.6708
▁Bon	-13.6709
▁12.9	-13.671
outlet	-13.6711
▁Employer	-13.6712
▁Tariff	-13.6712
▁rampant	-13.6712
▁Jolla	-13.6712
▁Contel	-13.6713
▁Tyler	-13.6713
▁disgruntle	-13.6713
▁escrow	-13.6713
sses	-13.6713
Hansen	-13.6714
▁10.50	-13.6715
▁Len	-13.6718
jamm	-13.672
ootball	-13.6721
$	-13.6723
thylene	-13.6725
canal	-13.6728
▁Laid	-13.673
intention	-13.6735
Quist	-13.6737
▁Dry	-13.6739
guaranteed	-13.674
ceramic	-13.6745
▁thriv	-13.6746
1.18	-13.6758
▁22-	-13.6758
▁subcompact	-13.6758
▁multilateral	-13.6758
▁Lindner	-13.6758
▁Farley	-13.676
▁societ	-13.6761
▁Neal	-13.6762
sarco	-13.6762
▁disability	-13.6762
▁coordinator	-13.6763
▁brutal	-13.6764
ami	-13.6764
▁secretaries	-13.6765
▁Sav	-13.6765
▁Jaff	-13.6766
▁organizational	-13.677
rrington	-13.6773
shareholding	-13.678
FA	-13.6781
▁complication	-13.6785
▁graduated	-13.6785
▁Aside	-13.6788
lew	-13.679
drop	-13.6792
▁terror	-13.6794
61	-13.6795
▁Camde	-13.6798
Wald	-13.6798
▁Ethiopia	-13.6799
▁cracks	-13.6801
▁Sol	-13.6803
▁Catalyst	-13.6804
▁Election	-13.6804
▁Liberals	-13.6804
▁snack	-13.6804
Hayes	-13.6807
▁Gua	-13.6811
▁Rican	-13.6812
▁Fac	-13.6812
Barr	-13.6817
immer	-13.6818
1,700	-13.682
ske	-13.6822
▁specter	-13.6823
chain	-13.6827
TON	-13.6828
▁Bur	-13.6833
department	-13.6835
▁Jobs	-13.6837
▁Outside	-13.6838
pence	-13.6839
sided	-13.6841
▁Shi	-13.6842
▁busi	-13.6843
sufficient	-13.6845
▁Advisor	-13.6846
▁Brew	-13.6847
▁physicist	-13.685
chasing	-13.685
harassment	-13.685
PT	-13.685
▁1948	-13.6851
ake	-13.6852
▁Dominican	-13.6852
▁Poles	-13.6852
bottom	-13.6853
▁kits	-13.6853
156	-13.6856
▁Trustco	-13.6859
▁outflow	-13.6859
▁13.7	-13.686
▁Compu	-13.6868
scheduled	-13.6868
CM	-13.687
col	-13.6872
1.84	-13.6879
▁undertaking	-13.6879
▁15.7	-13.6879
▁stresse	-13.6884
prepared	-13.6888
ics	-13.689
mania	-13.6891
lane	-13.6892
▁ceremon	-13.6895
stressing	-13.6895
▁Prosecutor	-13.6896
▁temptation	-13.6897
▁Frontier	-13.6898
▁frontier	-13.6898
▁viewing	-13.6898
▁Czechoslovakia	-13.6902
▁transmit	-13.6902
▁44-	-13.6903
▁Gel	-13.6905
▁Hicks	-13.6905
▁parental	-13.6906
▁11.25	-13.6908
▁Reid	-13.6909
▁Aero	-13.6913
Agra	-13.6913
lens	-13.6917
arb	-13.6925
▁colon	-13.6929
▁12.1	-13.693
CR	-13.6936
rian	-13.6939
▁Colt	-13.6941
var	-13.6942
▁Emirate	-13.6943
▁Survey	-13.6943
▁surcharge	-13.6943
▁insulation	-13.6943
-1980	-13.6943
▁colonel	-13.6943
▁disposition	-13.6943
▁exacerbate	-13.6943
▁ritual	-13.6944
▁elementary	-13.6945
▁lugg	-13.6945
▁Coopers	-13.6952
short	-13.6953
▁pour	-13.6954
pent	-13.6959
Geo	-13.6959
▁pretend	-13.6964
continental	-13.6966
▁pros	-13.6967
osh	-13.6967
human	-13.6972
compensation	-13.6983
▁Bus	-13.6985
app	-13.6987
alloy	-13.6989
▁Honolulu	-13.6989
▁paralyz	-13.6989
▁OFFER	-13.699
▁binge	-13.699
▁prohibitive	-13.6991
▁makeup	-13.6991
▁garage	-13.6992
▁deprive	-13.6993
▁Claibo	-13.6993
ius	-13.6994
Rad	-13.6994
effects	-13.6994
▁reformer	-13.6994
leading	-13.6995
adequac	-13.6999
apple	-13.6999
▁120,000	-13.7001
lim	-13.7002
▁rerun	-13.7004
decorat	-13.7004
▁grades	-13.7006
▁HK	-13.7007
[...]
